{
  "version": "1.0",
  "truncation": null,
  "padding": null,
  "added_tokens": [
    {
      "id": 0,
      "content": "[PAD]",
      "single_word": false,
      "lstrip": false,
      "rstrip": false,
      "normalized": false,
      "special": true
    },
    {
      "id": 1,
      "content": "[UNK]",
      "single_word": false,
      "lstrip": false,
      "rstrip": false,
      "normalized": false,
      "special": true
    },
    {
      "id": 2,
      "content": "[CLS]",
      "single_word": false,
      "lstrip": false,
      "rstrip": false,
      "normalized": false,
      "special": true
    },
    {
      "id": 3,
      "content": "[SEP]",
      "single_word": false,
      "lstrip": false,
      "rstrip": false,
      "normalized": false,
      "special": true
    },
    {
      "id": 4,
      "content": "[MASK]",
      "single_word": false,
      "lstrip": false,
      "rstrip": false,
      "normalized": false,
      "special": true
    }
  ],
  "normalizer": {
    "type": "BertNormalizer",
    "clean_text": true,
    "handle_chinese_chars": true,
    "strip_accents": false,
    "lowercase": false
  },
  "pre_tokenizer": {
    "type": "BertPreTokenizer"
  },
  "post_processor": {
    "type": "BertProcessing",
    "sep": [
      "[SEP]",
      3
    ],
    "cls": [
      "[CLS]",
      2
    ]
  },
  "decoder": {
    "type": "WordPiece",
    "prefix": "##",
    "cleanup": true
  },
  "model": {
    "type": "WordPiece",
    "unk_token": "[UNK]",
    "continuing_subword_prefix": "##",
    "max_input_chars_per_word": 100,
    "vocab": {
      "[PAD]": 0,
      "[UNK]": 1,
      "[CLS]": 2,
      "[SEP]": 3,
      "[MASK]": 4,
      "!": 5,
      ",": 6,
      ".": 7,
      "?": 8,
      "ᄀ": 9,
      "ᄁ": 10,
      "ᄂ": 11,
      "ᄃ": 12,
      "ᄄ": 13,
      "ᄅ": 14,
      "ᄆ": 15,
      "ᄇ": 16,
      "ᄈ": 17,
      "ᄉ": 18,
      "ᄊ": 19,
      "ᄋ": 20,
      "ᄌ": 21,
      "ᄍ": 22,
      "ᄎ": 23,
      "ᄏ": 24,
      "ᄐ": 25,
      "ᄑ": 26,
      "ᄒ": 27,
      "ᄓ": 28,
      "ᄕ": 29,
      "ᄾ": 30,
      "ᅌ": 31,
      "ᅘ": 32,
      "ᅙ": 33,
      "ᅟ": 34,
      "ᅡ": 35,
      "ᅢ": 36,
      "ᅥ": 37,
      "ᅧ": 38,
      "ᅨ": 39,
      "ᅳ": 40,
      "ᅵ": 41,
      "ᆉ": 42,
      "ᆌ": 43,
      "ᆞ": 44,
      "ᆡ": 45,
      "ᆢ": 46,
      "ᆦ": 47,
      "ᆨ": 48,
      "ᆩ": 49,
      "ᆫ": 50,
      "ᆮ": 51,
      "ᆯ": 52,
      "ᆰ": 53,
      "ᆱ": 54,
      "ᆲ": 55,
      "ᆷ": 56,
      "ᆸ": 57,
      "ᆺ": 58,
      "ᆼ": 59,
      "ᆽ": 60,
      "ᆾ": 61,
      "ᇀ": 62,
      "ᇁ": 63,
      "ᇇ": 64,
      "ᇐ": 65,
      "ᇕ": 66,
      "ᇢ": 67,
      "ᇦ": 68,
      "ㄱ": 69,
      "ㄲ": 70,
      "ㄴ": 71,
      "ㄷ": 72,
      "ㄸ": 73,
      "ㄹ": 74,
      "ㄻ": 75,
      "ㅁ": 76,
      "ㅂ": 77,
      "ㅃ": 78,
      "ㅅ": 79,
      "ㅆ": 80,
      "ㅇ": 81,
      "ㅈ": 82,
      "ㅉ": 83,
      "ㅊ": 84,
      "ㅋ": 85,
      "ㅌ": 86,
      "ㅍ": 87,
      "ㅎ": 88,
      "ㅏ": 89,
      "ㅐ": 90,
      "ㅑ": 91,
      "ㅒ": 92,
      "ㅓ": 93,
      "ㅔ": 94,
      "ㅕ": 95,
      "ㅗ": 96,
      "ㅘ": 97,
      "ㅛ": 98,
      "ㅜ": 99,
      "ㅝ": 100,
      "ㅠ": 101,
      "ㅡ": 102,
      "ㅣ": 103,
      "ㆍ": 104,
      "㎝": 105,
      "中": 106,
      "竹": 107,
      "耕": 108,
      "가": 109,
      "각": 110,
      "갂": 111,
      "간": 112,
      "갇": 113,
      "갈": 114,
      "갉": 115,
      "갊": 116,
      "갋": 117,
      "감": 118,
      "갑": 119,
      "값": 120,
      "갓": 121,
      "갔": 122,
      "강": 123,
      "갖": 124,
      "갗": 125,
      "같": 126,
      "갚": 127,
      "갛": 128,
      "개": 129,
      "객": 130,
      "갠": 131,
      "갤": 132,
      "갬": 133,
      "갭": 134,
      "갯": 135,
      "갰": 136,
      "갱": 137,
      "갷": 138,
      "갸": 139,
      "갹": 140,
      "갼": 141,
      "걀": 142,
      "걌": 143,
      "걍": 144,
      "걑": 145,
      "걔": 146,
      "걕": 147,
      "걘": 148,
      "걜": 149,
      "걩": 150,
      "거": 151,
      "걱": 152,
      "걲": 153,
      "건": 154,
      "걵": 155,
      "걷": 156,
      "걸": 157,
      "검": 158,
      "겁": 159,
      "겂": 160,
      "것": 161,
      "겄": 162,
      "겅": 163,
      "겆": 164,
      "겉": 165,
      "겊": 166,
      "겋": 167,
      "게": 168,
      "겍": 169,
      "겐": 170,
      "겔": 171,
      "겜": 172,
      "겝": 173,
      "겟": 174,
      "겠": 175,
      "겡": 176,
      "겧": 177,
      "겨": 178,
      "격": 179,
      "겪": 180,
      "견": 181,
      "겯": 182,
      "결": 183,
      "겸": 184,
      "겹": 185,
      "겻": 186,
      "겼": 187,
      "경": 188,
      "곀": 189,
      "곁": 190,
      "곂": 191,
      "계": 192,
      "곈": 193,
      "곌": 194,
      "곕": 195,
      "곗": 196,
      "곘": 197,
      "곙": 198,
      "고": 199,
      "곡": 200,
      "곤": 201,
      "곧": 202,
      "골": 203,
      "곪": 204,
      "곬": 205,
      "곯": 206,
      "곰": 207,
      "곱": 208,
      "곳": 209,
      "곴": 210,
      "공": 211,
      "곶": 212,
      "곷": 213,
      "곹": 214,
      "곺": 215,
      "곻": 216,
      "과": 217,
      "곽": 218,
      "관": 219,
      "괃": 220,
      "괄": 221,
      "괌": 222,
      "괍": 223,
      "괏": 224,
      "괐": 225,
      "광": 226,
      "괘": 227,
      "괙": 228,
      "괜": 229,
      "괞": 230,
      "괨": 231,
      "괫": 232,
      "괭": 233,
      "괴": 234,
      "괸": 235,
      "괼": 236,
      "굄": 237,
      "굅": 238,
      "굉": 239,
      "교": 240,
      "굑": 241,
      "굔": 242,
      "굘": 243,
      "굣": 244,
      "굥": 245,
      "구": 246,
      "국": 247,
      "군": 248,
      "굲": 249,
      "굳": 250,
      "굴": 251,
      "굵": 252,
      "굶": 253,
      "굻": 254,
      "굼": 255,
      "굽": 256,
      "굿": 257,
      "궁": 258,
      "궂": 259,
      "궃": 260,
      "궅": 261,
      "궈": 262,
      "권": 263,
      "궏": 264,
      "궐": 265,
      "궘": 266,
      "궙": 267,
      "궛": 268,
      "궜": 269,
      "궝": 270,
      "궤": 271,
      "궥": 272,
      "궨": 273,
      "궬": 274,
      "궴": 275,
      "궵": 276,
      "궷": 277,
      "궹": 278,
      "귀": 279,
      "귁": 280,
      "귄": 281,
      "귈": 282,
      "귐": 283,
      "귑": 284,
      "귓": 285,
      "귔": 286,
      "규": 287,
      "귝": 288,
      "균": 289,
      "귣": 290,
      "귤": 291,
      "귯": 292,
      "그": 293,
      "극": 294,
      "근": 295,
      "귾": 296,
      "귿": 297,
      "글": 298,
      "긁": 299,
      "긂": 300,
      "긄": 301,
      "긇": 302,
      "금": 303,
      "급": 304,
      "긋": 305,
      "긍": 306,
      "긎": 307,
      "긑": 308,
      "긔": 309,
      "긘": 310,
      "긜": 311,
      "긧": 312,
      "기": 313,
      "긱": 314,
      "긴": 315,
      "긷": 316,
      "길": 317,
      "긿": 318,
      "김": 319,
      "깁": 320,
      "깃": 321,
      "깄": 322,
      "깅": 323,
      "깆": 324,
      "깉": 325,
      "깊": 326,
      "까": 327,
      "깍": 328,
      "깎": 329,
      "깐": 330,
      "깔": 331,
      "깛": 332,
      "깜": 333,
      "깝": 334,
      "깞": 335,
      "깟": 336,
      "깠": 337,
      "깡": 338,
      "깢": 339,
      "깣": 340,
      "깥": 341,
      "깧": 342,
      "깨": 343,
      "깩": 344,
      "깬": 345,
      "깰": 346,
      "깸": 347,
      "깹": 348,
      "깻": 349,
      "깼": 350,
      "깽": 351,
      "꺁": 352,
      "꺂": 353,
      "꺄": 354,
      "꺅": 355,
      "꺆": 356,
      "꺠": 357,
      "꺡": 358,
      "꺤": 359,
      "꺨": 360,
      "꺳": 361,
      "꺴": 362,
      "꺵": 363,
      "꺼": 364,
      "꺽": 365,
      "꺾": 366,
      "껀": 367,
      "껄": 368,
      "껌": 369,
      "껍": 370,
      "껏": 371,
      "껐": 372,
      "껑": 373,
      "껕": 374,
      "껗": 375,
      "께": 376,
      "껙": 377,
      "껜": 378,
      "껟": 379,
      "껠": 380,
      "껨": 381,
      "껩": 382,
      "껫": 383,
      "껬": 384,
      "껭": 385,
      "껱": 386,
      "껴": 387,
      "껵": 388,
      "껶": 389,
      "껸": 390,
      "꼄": 391,
      "꼅": 392,
      "꼇": 393,
      "꼈": 394,
      "꼉": 395,
      "꼍": 396,
      "꼐": 397,
      "꼔": 398,
      "꼬": 399,
      "꼭": 400,
      "꼰": 401,
      "꼳": 402,
      "꼴": 403,
      "꼻": 404,
      "꼼": 405,
      "꼽": 406,
      "꼿": 407,
      "꽁": 408,
      "꽂": 409,
      "꽃": 410,
      "꽅": 411,
      "꽈": 412,
      "꽉": 413,
      "꽊": 414,
      "꽌": 415,
      "꽐": 416,
      "꽘": 417,
      "꽛": 418,
      "꽜": 419,
      "꽝": 420,
      "꽞": 421,
      "꽤": 422,
      "꽥": 423,
      "꽨": 424,
      "꽷": 425,
      "꽹": 426,
      "꾀": 427,
      "꾁": 428,
      "꾄": 429,
      "꾈": 430,
      "꾐": 431,
      "꾔": 432,
      "꾕": 433,
      "꾜": 434,
      "꾝": 435,
      "꾳": 436,
      "꾸": 437,
      "꾹": 438,
      "꾼": 439,
      "꾿": 440,
      "꿀": 441,
      "꿂": 442,
      "꿇": 443,
      "꿈": 444,
      "꿉": 445,
      "꿋": 446,
      "꿍": 447,
      "꿎": 448,
      "꿓": 449,
      "꿔": 450,
      "꿕": 451,
      "꿘": 452,
      "꿜": 453,
      "꿤": 454,
      "꿧": 455,
      "꿨": 456,
      "꿩": 457,
      "꿰": 458,
      "꿱": 459,
      "꿴": 460,
      "꿸": 461,
      "뀀": 462,
      "뀁": 463,
      "뀃": 464,
      "뀄": 465,
      "뀅": 466,
      "뀌": 467,
      "뀐": 468,
      "뀔": 469,
      "뀝": 470,
      "뀠": 471,
      "뀨": 472,
      "끄": 473,
      "끅": 474,
      "끈": 475,
      "끊": 476,
      "끋": 477,
      "끌": 478,
      "끍": 479,
      "끎": 480,
      "끓": 481,
      "끔": 482,
      "끕": 483,
      "끗": 484,
      "끙": 485,
      "끝": 486,
      "끠": 487,
      "끤": 488,
      "끳": 489,
      "끼": 490,
      "끽": 491,
      "끾": 492,
      "낀": 493,
      "낄": 494,
      "낋": 495,
      "낌": 496,
      "낍": 497,
      "낏": 498,
      "낑": 499,
      "낕": 500,
      "나": 501,
      "낙": 502,
      "낚": 503,
      "난": 504,
      "낟": 505,
      "날": 506,
      "낡": 507,
      "낢": 508,
      "낣": 509,
      "남": 510,
      "납": 511,
      "낫": 512,
      "났": 513,
      "낭": 514,
      "낮": 515,
      "낯": 516,
      "낱": 517,
      "낳": 518,
      "내": 519,
      "낵": 520,
      "낸": 521,
      "낼": 522,
      "냄": 523,
      "냅": 524,
      "냇": 525,
      "냈": 526,
      "냉": 527,
      "냐": 528,
      "냑": 529,
      "냔": 530,
      "냘": 531,
      "냠": 532,
      "냡": 533,
      "냤": 534,
      "냥": 535,
      "냬": 536,
      "냰": 537,
      "넁": 538,
      "너": 539,
      "넉": 540,
      "넊": 541,
      "넋": 542,
      "넌": 543,
      "널": 544,
      "넑": 545,
      "넒": 546,
      "넓": 547,
      "넖": 548,
      "넗": 549,
      "넘": 550,
      "넙": 551,
      "넚": 552,
      "넛": 553,
      "넜": 554,
      "넝": 555,
      "넡": 556,
      "넢": 557,
      "넣": 558,
      "네": 559,
      "넥": 560,
      "넨": 561,
      "넫": 562,
      "넬": 563,
      "넴": 564,
      "넵": 565,
      "넷": 566,
      "넸": 567,
      "넹": 568,
      "넽": 569,
      "넿": 570,
      "녀": 571,
      "녁": 572,
      "녂": 573,
      "년": 574,
      "녈": 575,
      "념": 576,
      "녑": 577,
      "녓": 578,
      "녔": 579,
      "녕": 580,
      "녘": 581,
      "녜": 582,
      "녠": 583,
      "녯": 584,
      "녱": 585,
      "노": 586,
      "녹": 587,
      "논": 588,
      "놀": 589,
      "놂": 590,
      "놈": 591,
      "놉": 592,
      "놋": 593,
      "농": 594,
      "놎": 595,
      "놏": 596,
      "놑": 597,
      "높": 598,
      "놓": 599,
      "놔": 600,
      "놕": 601,
      "놘": 602,
      "놤": 603,
      "놥": 604,
      "놧": 605,
      "놨": 606,
      "놩": 607,
      "놯": 608,
      "놰": 609,
      "뇁": 610,
      "뇌": 611,
      "뇐": 612,
      "뇜": 613,
      "뇠": 614,
      "뇨": 615,
      "뇬": 616,
      "뇰": 617,
      "뇸": 618,
      "뇽": 619,
      "누": 620,
      "눅": 621,
      "눈": 622,
      "눋": 623,
      "눌": 624,
      "눔": 625,
      "눕": 626,
      "눗": 627,
      "눙": 628,
      "눞": 629,
      "눟": 630,
      "눠": 631,
      "눤": 632,
      "눨": 633,
      "눰": 634,
      "눳": 635,
      "눴": 636,
      "눵": 637,
      "눼": 638,
      "뉀": 639,
      "뉏": 640,
      "뉘": 641,
      "뉜": 642,
      "뉠": 643,
      "뉩": 644,
      "뉴": 645,
      "뉵": 646,
      "뉸": 647,
      "늄": 648,
      "늉": 649,
      "느": 650,
      "늑": 651,
      "는": 652,
      "늕": 653,
      "늗": 654,
      "늘": 655,
      "늙": 656,
      "늠": 657,
      "늡": 658,
      "늣": 659,
      "능": 660,
      "늦": 661,
      "늩": 662,
      "늪": 663,
      "늫": 664,
      "늬": 665,
      "늰": 666,
      "늴": 667,
      "늿": 668,
      "니": 669,
      "닉": 670,
      "닊": 671,
      "닌": 672,
      "닏": 673,
      "닐": 674,
      "님": 675,
      "닙": 676,
      "닛": 677,
      "닜": 678,
      "닝": 679,
      "닞": 680,
      "닢": 681,
      "닣": 682,
      "다": 683,
      "닥": 684,
      "닦": 685,
      "단": 686,
      "닪": 687,
      "닫": 688,
      "달": 689,
      "닭": 690,
      "닮": 691,
      "닯": 692,
      "닳": 693,
      "담": 694,
      "답": 695,
      "닶": 696,
      "닷": 697,
      "닸": 698,
      "당": 699,
      "닺": 700,
      "닻": 701,
      "닽": 702,
      "닿": 703,
      "대": 704,
      "댁": 705,
      "댄": 706,
      "댇": 707,
      "댈": 708,
      "댐": 709,
      "댑": 710,
      "댓": 711,
      "댔": 712,
      "댕": 713,
      "댜": 714,
      "댱": 715,
      "댷": 716,
      "댸": 717,
      "더": 718,
      "덕": 719,
      "덖": 720,
      "던": 721,
      "덛": 722,
      "덜": 723,
      "덝": 724,
      "덞": 725,
      "덟": 726,
      "덣": 727,
      "덤": 728,
      "덥": 729,
      "덧": 730,
      "덨": 731,
      "덩": 732,
      "덫": 733,
      "덮": 734,
      "덯": 735,
      "데": 736,
      "덱": 737,
      "덴": 738,
      "덷": 739,
      "델": 740,
      "뎀": 741,
      "뎁": 742,
      "뎃": 743,
      "뎄": 744,
      "뎅": 745,
      "뎆": 746,
      "뎊": 747,
      "뎌": 748,
      "뎐": 749,
      "뎜": 750,
      "뎠": 751,
      "뎡": 752,
      "뎦": 753,
      "뎨": 754,
      "뎬": 755,
      "도": 756,
      "독": 757,
      "돈": 758,
      "돋": 759,
      "돌": 760,
      "돍": 761,
      "돎": 762,
      "돔": 763,
      "돕": 764,
      "돗": 765,
      "돘": 766,
      "동": 767,
      "돚": 768,
      "돛": 769,
      "돝": 770,
      "돟": 771,
      "돠": 772,
      "돤": 773,
      "돨": 774,
      "돳": 775,
      "돴": 776,
      "돵": 777,
      "돼": 778,
      "됀": 779,
      "됄": 780,
      "됌": 781,
      "됍": 782,
      "됏": 783,
      "됐": 784,
      "됑": 785,
      "되": 786,
      "됙": 787,
      "된": 788,
      "될": 789,
      "됨": 790,
      "됩": 791,
      "됫": 792,
      "됬": 793,
      "됭": 794,
      "됮": 795,
      "두": 796,
      "둑": 797,
      "둔": 798,
      "둗": 799,
      "둘": 800,
      "둚": 801,
      "둠": 802,
      "둡": 803,
      "둣": 804,
      "둤": 805,
      "둥": 806,
      "둬": 807,
      "둭": 808,
      "둰": 809,
      "둴": 810,
      "둼": 811,
      "둽": 812,
      "둿": 813,
      "뒀": 814,
      "뒁": 815,
      "뒈": 816,
      "뒌": 817,
      "뒐": 818,
      "뒘": 819,
      "뒙": 820,
      "뒛": 821,
      "뒝": 822,
      "뒤": 823,
      "뒨": 824,
      "뒬": 825,
      "뒷": 826,
      "뒸": 827,
      "뒹": 828,
      "듀": 829,
      "듈": 830,
      "듐": 831,
      "듕": 832,
      "드": 833,
      "득": 834,
      "든": 835,
      "듣": 836,
      "들": 837,
      "듦": 838,
      "듬": 839,
      "듭": 840,
      "듯": 841,
      "등": 842,
      "듸": 843,
      "듼": 844,
      "딀": 845,
      "딋": 846,
      "딍": 847,
      "디": 848,
      "딕": 849,
      "딘": 850,
      "딛": 851,
      "딜": 852,
      "딞": 853,
      "딤": 854,
      "딥": 855,
      "딧": 856,
      "딨": 857,
      "딩": 858,
      "딪": 859,
      "딫": 860,
      "딮": 861,
      "따": 862,
      "딱": 863,
      "딲": 864,
      "딴": 865,
      "딸": 866,
      "딺": 867,
      "땀": 868,
      "땁": 869,
      "땃": 870,
      "땄": 871,
      "땅": 872,
      "땋": 873,
      "때": 874,
      "땍": 875,
      "땐": 876,
      "땔": 877,
      "땜": 878,
      "땝": 879,
      "땟": 880,
      "땠": 881,
      "땡": 882,
      "땨": 883,
      "땽": 884,
      "떄": 885,
      "떈": 886,
      "떌": 887,
      "떔": 888,
      "떘": 889,
      "떙": 890,
      "떠": 891,
      "떡": 892,
      "떢": 893,
      "떤": 894,
      "떨": 895,
      "떪": 896,
      "떫": 897,
      "떯": 898,
      "떰": 899,
      "떱": 900,
      "떳": 901,
      "떴": 902,
      "떵": 903,
      "떻": 904,
      "떼": 905,
      "떽": 906,
      "뗀": 907,
      "뗄": 908,
      "뗌": 909,
      "뗍": 910,
      "뗏": 911,
      "뗐": 912,
      "뗑": 913,
      "뗗": 914,
      "뗘": 915,
      "뗙": 916,
      "뗜": 917,
      "뗬": 918,
      "뗭": 919,
      "뗴": 920,
      "뗵": 921,
      "뗸": 922,
      "뗼": 923,
      "또": 924,
      "똑": 925,
      "똒": 926,
      "똔": 927,
      "똗": 928,
      "똘": 929,
      "똟": 930,
      "똠": 931,
      "똡": 932,
      "똣": 933,
      "똥": 934,
      "똩": 935,
      "똬": 936,
      "똭": 937,
      "똰": 938,
      "뙁": 939,
      "뙈": 940,
      "뙤": 941,
      "뙨": 942,
      "뙬": 943,
      "뚜": 944,
      "뚝": 945,
      "뚞": 946,
      "뚠": 947,
      "뚤": 948,
      "뚦": 949,
      "뚧": 950,
      "뚫": 951,
      "뚬": 952,
      "뚯": 953,
      "뚱": 954,
      "뚸": 955,
      "뚼": 956,
      "뛌": 957,
      "뛍": 958,
      "뛔": 959,
      "뛰": 960,
      "뛴": 961,
      "뛸": 962,
      "뜀": 963,
      "뜁": 964,
      "뜅": 965,
      "뜌": 966,
      "뜨": 967,
      "뜩": 968,
      "뜬": 969,
      "뜯": 970,
      "뜰": 971,
      "뜷": 972,
      "뜸": 973,
      "뜹": 974,
      "뜻": 975,
      "뜽": 976,
      "띁": 977,
      "띃": 978,
      "띄": 979,
      "띈": 980,
      "띌": 981,
      "띔": 982,
      "띕": 983,
      "띠": 984,
      "띡": 985,
      "띤": 986,
      "띧": 987,
      "띨": 988,
      "띰": 989,
      "띱": 990,
      "띴": 991,
      "띵": 992,
      "라": 993,
      "락": 994,
      "란": 995,
      "랃": 996,
      "랄": 997,
      "람": 998,
      "랍": 999,
      "랏": 1000,
      "랐": 1001,
      "랑": 1002,
      "랔": 1003,
      "랖": 1004,
      "랗": 1005,
      "래": 1006,
      "랙": 1007,
      "랜": 1008,
      "랟": 1009,
      "랠": 1010,
      "램": 1011,
      "랩": 1012,
      "랫": 1013,
      "랬": 1014,
      "랭": 1015,
      "랳": 1016,
      "랴": 1017,
      "략": 1018,
      "랸": 1019,
      "럇": 1020,
      "럈": 1021,
      "량": 1022,
      "럔": 1023,
      "럤": 1024,
      "러": 1025,
      "럭": 1026,
      "런": 1027,
      "럴": 1028,
      "럼": 1029,
      "럽": 1030,
      "럿": 1031,
      "렀": 1032,
      "렁": 1033,
      "렃": 1034,
      "렄": 1035,
      "렇": 1036,
      "레": 1037,
      "렉": 1038,
      "렌": 1039,
      "렐": 1040,
      "렘": 1041,
      "렙": 1042,
      "렛": 1043,
      "렜": 1044,
      "렝": 1045,
      "려": 1046,
      "력": 1047,
      "련": 1048,
      "렫": 1049,
      "렬": 1050,
      "렴": 1051,
      "렵": 1052,
      "렷": 1053,
      "렸": 1054,
      "령": 1055,
      "렽": 1056,
      "렾": 1057,
      "렿": 1058,
      "례": 1059,
      "롄": 1060,
      "롈": 1061,
      "롔": 1062,
      "로": 1063,
      "록": 1064,
      "론": 1065,
      "롤": 1066,
      "롥": 1067,
      "롬": 1068,
      "롭": 1069,
      "롯": 1070,
      "롱": 1071,
      "롶": 1072,
      "롷": 1073,
      "롸": 1074,
      "롼": 1075,
      "뢀": 1076,
      "뢈": 1077,
      "뢋": 1078,
      "뢌": 1079,
      "뢍": 1080,
      "뢰": 1081,
      "료": 1082,
      "룍": 1083,
      "룐": 1084,
      "룔": 1085,
      "룝": 1086,
      "룟": 1087,
      "룡": 1088,
      "루": 1089,
      "룩": 1090,
      "룬": 1091,
      "룰": 1092,
      "룸": 1093,
      "룹": 1094,
      "룻": 1095,
      "룽": 1096,
      "뤀": 1097,
      "뤂": 1098,
      "뤄": 1099,
      "뤈": 1100,
      "뤌": 1101,
      "뤔": 1102,
      "뤗": 1103,
      "뤘": 1104,
      "뤙": 1105,
      "뤠": 1106,
      "뤡": 1107,
      "뤳": 1108,
      "뤼": 1109,
      "뤽": 1110,
      "륀": 1111,
      "륄": 1112,
      "류": 1113,
      "륙": 1114,
      "륜": 1115,
      "률": 1116,
      "륨": 1117,
      "륩": 1118,
      "륭": 1119,
      "르": 1120,
      "륵": 1121,
      "른": 1122,
      "를": 1123,
      "름": 1124,
      "릅": 1125,
      "릇": 1126,
      "릉": 1127,
      "릎": 1128,
      "릏": 1129,
      "릐": 1130,
      "리": 1131,
      "릭": 1132,
      "린": 1133,
      "릳": 1134,
      "릴": 1135,
      "림": 1136,
      "립": 1137,
      "릿": 1138,
      "맀": 1139,
      "링": 1140,
      "맄": 1141,
      "맆": 1142,
      "맇": 1143,
      "마": 1144,
      "막": 1145,
      "만": 1146,
      "맍": 1147,
      "많": 1148,
      "맏": 1149,
      "말": 1150,
      "맑": 1151,
      "맒": 1152,
      "맗": 1153,
      "맘": 1154,
      "맙": 1155,
      "맛": 1156,
      "맜": 1157,
      "망": 1158,
      "맞": 1159,
      "맟": 1160,
      "맡": 1161,
      "맣": 1162,
      "매": 1163,
      "맥": 1164,
      "맨": 1165,
      "맫": 1166,
      "맬": 1167,
      "맴": 1168,
      "맵": 1169,
      "맷": 1170,
      "맸": 1171,
      "맹": 1172,
      "맺": 1173,
      "맻": 1174,
      "맽": 1175,
      "맿": 1176,
      "먀": 1177,
      "먁": 1178,
      "먄": 1179,
      "먈": 1180,
      "먕": 1181,
      "먖": 1182,
      "먗": 1183,
      "먜": 1184,
      "머": 1185,
      "먹": 1186,
      "먺": 1187,
      "먼": 1188,
      "먾": 1189,
      "먿": 1190,
      "멀": 1191,
      "멈": 1192,
      "멉": 1193,
      "멊": 1194,
      "멋": 1195,
      "멌": 1196,
      "멍": 1197,
      "멎": 1198,
      "멓": 1199,
      "메": 1200,
      "멕": 1201,
      "멘": 1202,
      "멜": 1203,
      "멤": 1204,
      "멥": 1205,
      "멧": 1206,
      "멨": 1207,
      "멩": 1208,
      "멪": 1209,
      "멫": 1210,
      "멭": 1211,
      "며": 1212,
      "멱": 1213,
      "면": 1214,
      "멶": 1215,
      "멸": 1216,
      "몀": 1217,
      "몃": 1218,
      "몄": 1219,
      "명": 1220,
      "몆": 1221,
      "몇": 1222,
      "몊": 1223,
      "몐": 1224,
      "몟": 1225,
      "몣": 1226,
      "모": 1227,
      "목": 1228,
      "몫": 1229,
      "몬": 1230,
      "몯": 1231,
      "몰": 1232,
      "몸": 1233,
      "몹": 1234,
      "몺": 1235,
      "못": 1236,
      "몽": 1237,
      "몾": 1238,
      "뫃": 1239,
      "뫄": 1240,
      "뫘": 1241,
      "뫼": 1242,
      "묄": 1243,
      "묏": 1244,
      "묘": 1245,
      "묙": 1246,
      "묜": 1247,
      "묠": 1248,
      "묫": 1249,
      "묭": 1250,
      "묮": 1251,
      "무": 1252,
      "묵": 1253,
      "묶": 1254,
      "문": 1255,
      "묻": 1256,
      "물": 1257,
      "묽": 1258,
      "묾": 1259,
      "뭄": 1260,
      "뭅": 1261,
      "뭇": 1262,
      "뭉": 1263,
      "뭍": 1264,
      "뭏": 1265,
      "뭐": 1266,
      "뭔": 1267,
      "뭘": 1268,
      "뭠": 1269,
      "뭡": 1270,
      "뭣": 1271,
      "뭤": 1272,
      "뭥": 1273,
      "뭬": 1274,
      "뮈": 1275,
      "뮌": 1276,
      "뮤": 1277,
      "뮥": 1278,
      "뮬": 1279,
      "므": 1280,
      "믄": 1281,
      "믈": 1282,
      "믐": 1283,
      "믑": 1284,
      "믓": 1285,
      "믕": 1286,
      "믜": 1287,
      "믠": 1288,
      "믯": 1289,
      "미": 1290,
      "믹": 1291,
      "민": 1292,
      "믾": 1293,
      "믿": 1294,
      "밀": 1295,
      "밈": 1296,
      "밉": 1297,
      "밋": 1298,
      "밌": 1299,
      "밍": 1300,
      "밎": 1301,
      "및": 1302,
      "밑": 1303,
      "바": 1304,
      "박": 1305,
      "밖": 1306,
      "반": 1307,
      "받": 1308,
      "발": 1309,
      "밝": 1310,
      "밞": 1311,
      "밟": 1312,
      "밤": 1313,
      "밥": 1314,
      "밧": 1315,
      "밨": 1316,
      "방": 1317,
      "밪": 1318,
      "밭": 1319,
      "배": 1320,
      "백": 1321,
      "밲": 1322,
      "밴": 1323,
      "밷": 1324,
      "밸": 1325,
      "밻": 1326,
      "뱀": 1327,
      "뱁": 1328,
      "뱃": 1329,
      "뱄": 1330,
      "뱅": 1331,
      "뱇": 1332,
      "뱈": 1333,
      "뱉": 1334,
      "뱌": 1335,
      "뱍": 1336,
      "뱓": 1337,
      "뱔": 1338,
      "뱡": 1339,
      "버": 1340,
      "벅": 1341,
      "벆": 1342,
      "번": 1343,
      "벋": 1344,
      "벌": 1345,
      "벍": 1346,
      "벏": 1347,
      "범": 1348,
      "법": 1349,
      "벗": 1350,
      "벘": 1351,
      "벙": 1352,
      "벚": 1353,
      "벛": 1354,
      "벝": 1355,
      "베": 1356,
      "벡": 1357,
      "벢": 1358,
      "벤": 1359,
      "벧": 1360,
      "벨": 1361,
      "벰": 1362,
      "벱": 1363,
      "벳": 1364,
      "벴": 1365,
      "벵": 1366,
      "벷": 1367,
      "벹": 1368,
      "벼": 1369,
      "벽": 1370,
      "변": 1371,
      "볃": 1372,
      "별": 1373,
      "볌": 1374,
      "볍": 1375,
      "볏": 1376,
      "볐": 1377,
      "병": 1378,
      "볓": 1379,
      "볔": 1380,
      "볕": 1381,
      "볖": 1382,
      "보": 1383,
      "복": 1384,
      "볶": 1385,
      "본": 1386,
      "볻": 1387,
      "볼": 1388,
      "볽": 1389,
      "볿": 1390,
      "봄": 1391,
      "봅": 1392,
      "봇": 1393,
      "봈": 1394,
      "봉": 1395,
      "봍": 1396,
      "봐": 1397,
      "봑": 1398,
      "봒": 1399,
      "봔": 1400,
      "봘": 1401,
      "봠": 1402,
      "봡": 1403,
      "봣": 1404,
      "봤": 1405,
      "봥": 1406,
      "봬": 1407,
      "봰": 1408,
      "봼": 1409,
      "뵀": 1410,
      "뵁": 1411,
      "뵈": 1412,
      "뵌": 1413,
      "뵐": 1414,
      "뵘": 1415,
      "뵙": 1416,
      "뵛": 1417,
      "뵜": 1418,
      "뵝": 1419,
      "뵤": 1420,
      "뵹": 1421,
      "부": 1422,
      "북": 1423,
      "붂": 1424,
      "분": 1425,
      "붇": 1426,
      "불": 1427,
      "붉": 1428,
      "붊": 1429,
      "붋": 1430,
      "붐": 1431,
      "붑": 1432,
      "붓": 1433,
      "붕": 1434,
      "붙": 1435,
      "붤": 1436,
      "붥": 1437,
      "붸": 1438,
      "붼": 1439,
      "뷀": 1440,
      "뷁": 1441,
      "뷉": 1442,
      "뷔": 1443,
      "뷰": 1444,
      "뷱": 1445,
      "뷴": 1446,
      "뷸": 1447,
      "븅": 1448,
      "브": 1449,
      "븍": 1450,
      "븐": 1451,
      "블": 1452,
      "븜": 1453,
      "븝": 1454,
      "븟": 1455,
      "븡": 1456,
      "븥": 1457,
      "븨": 1458,
      "비": 1459,
      "빅": 1460,
      "빈": 1461,
      "빋": 1462,
      "빌": 1463,
      "빔": 1464,
      "빕": 1465,
      "빗": 1466,
      "빘": 1467,
      "빙": 1468,
      "빚": 1469,
      "빛": 1470,
      "빝": 1471,
      "빠": 1472,
      "빡": 1473,
      "빤": 1474,
      "빧": 1475,
      "빨": 1476,
      "빫": 1477,
      "빰": 1478,
      "빱": 1479,
      "빳": 1480,
      "빴": 1481,
      "빵": 1482,
      "빻": 1483,
      "빼": 1484,
      "빽": 1485,
      "빾": 1486,
      "뺀": 1487,
      "뺄": 1488,
      "뺌": 1489,
      "뺍": 1490,
      "뺏": 1491,
      "뺐": 1492,
      "뺑": 1493,
      "뺕": 1494,
      "뺘": 1495,
      "뺠": 1496,
      "뺨": 1497,
      "뺴": 1498,
      "뺵": 1499,
      "뺸": 1500,
      "뺼": 1501,
      "뻇": 1502,
      "뻈": 1503,
      "뻉": 1504,
      "뻐": 1505,
      "뻑": 1506,
      "뻔": 1507,
      "뻗": 1508,
      "뻘": 1509,
      "뻠": 1510,
      "뻣": 1511,
      "뻤": 1512,
      "뻥": 1513,
      "뻬": 1514,
      "뻭": 1515,
      "뻮": 1516,
      "뻰": 1517,
      "뻴": 1518,
      "뻿": 1519,
      "뼀": 1520,
      "뼁": 1521,
      "뼈": 1522,
      "뼉": 1523,
      "뼌": 1524,
      "뼘": 1525,
      "뼛": 1526,
      "뼜": 1527,
      "뼝": 1528,
      "뼤": 1529,
      "뼷": 1530,
      "뽀": 1531,
      "뽁": 1532,
      "뽂": 1533,
      "뽄": 1534,
      "뽇": 1535,
      "뽈": 1536,
      "뽐": 1537,
      "뽑": 1538,
      "뽓": 1539,
      "뽕": 1540,
      "뽖": 1541,
      "뽛": 1542,
      "뽜": 1543,
      "뽝": 1544,
      "뽠": 1545,
      "뽰": 1546,
      "뽱": 1547,
      "뾰": 1548,
      "뾱": 1549,
      "뿅": 1550,
      "뿌": 1551,
      "뿍": 1552,
      "뿐": 1553,
      "뿔": 1554,
      "뿕": 1555,
      "뿜": 1556,
      "뿝": 1557,
      "뿡": 1558,
      "뿩": 1559,
      "쀨": 1560,
      "쁑": 1561,
      "쁘": 1562,
      "쁜": 1563,
      "쁠": 1564,
      "쁨": 1565,
      "쁩": 1566,
      "쁫": 1567,
      "삐": 1568,
      "삑": 1569,
      "삔": 1570,
      "삘": 1571,
      "삠": 1572,
      "삡": 1573,
      "삣": 1574,
      "삥": 1575,
      "삧": 1576,
      "사": 1577,
      "삭": 1578,
      "삮": 1579,
      "삯": 1580,
      "산": 1581,
      "살": 1582,
      "삵": 1583,
      "삶": 1584,
      "삷": 1585,
      "삻": 1586,
      "삼": 1587,
      "삽": 1588,
      "삿": 1589,
      "샀": 1590,
      "상": 1591,
      "샃": 1592,
      "샅": 1593,
      "샆": 1594,
      "샇": 1595,
      "새": 1596,
      "색": 1597,
      "샊": 1598,
      "샋": 1599,
      "샌": 1600,
      "샏": 1601,
      "샐": 1602,
      "샘": 1603,
      "샙": 1604,
      "샛": 1605,
      "샜": 1606,
      "생": 1607,
      "샤": 1608,
      "샥": 1609,
      "샨": 1610,
      "샬": 1611,
      "샴": 1612,
      "샵": 1613,
      "샷": 1614,
      "샸": 1615,
      "샹": 1616,
      "샾": 1617,
      "섀": 1618,
      "섄": 1619,
      "서": 1620,
      "석": 1621,
      "섞": 1622,
      "선": 1623,
      "섣": 1624,
      "설": 1625,
      "섥": 1626,
      "섦": 1627,
      "섧": 1628,
      "섬": 1629,
      "섭": 1630,
      "섯": 1631,
      "섰": 1632,
      "성": 1633,
      "섵": 1634,
      "섶": 1635,
      "세": 1636,
      "섹": 1637,
      "센": 1638,
      "섿": 1639,
      "셀": 1640,
      "셈": 1641,
      "셉": 1642,
      "셋": 1643,
      "셌": 1644,
      "셍": 1645,
      "셔": 1646,
      "셖": 1647,
      "션": 1648,
      "셜": 1649,
      "셤": 1650,
      "셥": 1651,
      "셧": 1652,
      "셨": 1653,
      "셩": 1654,
      "셰": 1655,
      "셴": 1656,
      "셸": 1657,
      "소": 1658,
      "속": 1659,
      "솎": 1660,
      "손": 1661,
      "솓": 1662,
      "솔": 1663,
      "솕": 1664,
      "솖": 1665,
      "솜": 1666,
      "솝": 1667,
      "솟": 1668,
      "송": 1669,
      "솥": 1670,
      "솦": 1671,
      "솧": 1672,
      "솨": 1673,
      "솩": 1674,
      "솰": 1675,
      "솸": 1676,
      "솼": 1677,
      "솽": 1678,
      "쇄": 1679,
      "쇅": 1680,
      "쇗": 1681,
      "쇙": 1682,
      "쇠": 1683,
      "쇤": 1684,
      "쇱": 1685,
      "쇳": 1686,
      "쇵": 1687,
      "쇼": 1688,
      "쇽": 1689,
      "숀": 1690,
      "숄": 1691,
      "숍": 1692,
      "숏": 1693,
      "숑": 1694,
      "숖": 1695,
      "수": 1696,
      "숙": 1697,
      "숚": 1698,
      "순": 1699,
      "숟": 1700,
      "술": 1701,
      "숨": 1702,
      "숩": 1703,
      "숫": 1704,
      "숭": 1705,
      "숯": 1706,
      "숱": 1707,
      "숲": 1708,
      "숴": 1709,
      "숸": 1710,
      "숼": 1711,
      "쉄": 1712,
      "쉈": 1713,
      "쉉": 1714,
      "쉐": 1715,
      "쉑": 1716,
      "쉔": 1717,
      "쉘": 1718,
      "쉡": 1719,
      "쉣": 1720,
      "쉥": 1721,
      "쉩": 1722,
      "쉬": 1723,
      "쉭": 1724,
      "쉰": 1725,
      "쉴": 1726,
      "쉼": 1727,
      "쉽": 1728,
      "쉿": 1729,
      "슁": 1730,
      "슈": 1731,
      "슉": 1732,
      "슌": 1733,
      "슐": 1734,
      "슘": 1735,
      "슛": 1736,
      "슝": 1737,
      "슟": 1738,
      "스": 1739,
      "슥": 1740,
      "슨": 1741,
      "슬": 1742,
      "슭": 1743,
      "슴": 1744,
      "습": 1745,
      "슷": 1746,
      "승": 1747,
      "슻": 1748,
      "슽": 1749,
      "슾": 1750,
      "싀": 1751,
      "싄": 1752,
      "싓": 1753,
      "싕": 1754,
      "시": 1755,
      "식": 1756,
      "싞": 1757,
      "신": 1758,
      "싣": 1759,
      "실": 1760,
      "싥": 1761,
      "싦": 1762,
      "싨": 1763,
      "싫": 1764,
      "심": 1765,
      "십": 1766,
      "싯": 1767,
      "싰": 1768,
      "싱": 1769,
      "싲": 1770,
      "싳": 1771,
      "싵": 1772,
      "싶": 1773,
      "싸": 1774,
      "싹": 1775,
      "싻": 1776,
      "싼": 1777,
      "싾": 1778,
      "싿": 1779,
      "쌀": 1780,
      "쌂": 1781,
      "쌃": 1782,
      "쌈": 1783,
      "쌉": 1784,
      "쌋": 1785,
      "쌌": 1786,
      "쌍": 1787,
      "쌓": 1788,
      "쌔": 1789,
      "쌕": 1790,
      "쌘": 1791,
      "쌜": 1792,
      "쌤": 1793,
      "쌥": 1794,
      "쌧": 1795,
      "쌨": 1796,
      "쌩": 1797,
      "쌰": 1798,
      "쌱": 1799,
      "쌴": 1800,
      "쌸": 1801,
      "썅": 1802,
      "썌": 1803,
      "썍": 1804,
      "썐": 1805,
      "썜": 1806,
      "썡": 1807,
      "써": 1808,
      "썩": 1809,
      "썪": 1810,
      "썬": 1811,
      "썰": 1812,
      "썲": 1813,
      "썸": 1814,
      "썹": 1815,
      "썻": 1816,
      "썼": 1817,
      "썽": 1818,
      "쎂": 1819,
      "쎄": 1820,
      "쎅": 1821,
      "쎈": 1822,
      "쎌": 1823,
      "쎔": 1824,
      "쎕": 1825,
      "쎗": 1826,
      "쎘": 1827,
      "쎙": 1828,
      "쎠": 1829,
      "쎡": 1830,
      "쎴": 1831,
      "쎵": 1832,
      "쎼": 1833,
      "쏀": 1834,
      "쏍": 1835,
      "쏐": 1836,
      "쏘": 1837,
      "쏙": 1838,
      "쏜": 1839,
      "쏟": 1840,
      "쏠": 1841,
      "쏢": 1842,
      "쏨": 1843,
      "쏩": 1844,
      "쏫": 1845,
      "쏭": 1846,
      "쏱": 1847,
      "쏳": 1848,
      "쏴": 1849,
      "쏵": 1850,
      "쏸": 1851,
      "쏼": 1852,
      "쐅": 1853,
      "쐇": 1854,
      "쐈": 1855,
      "쐉": 1856,
      "쐐": 1857,
      "쐤": 1858,
      "쐥": 1859,
      "쐬": 1860,
      "쐰": 1861,
      "쐴": 1862,
      "쐼": 1863,
      "쑀": 1864,
      "쑁": 1865,
      "쑈": 1866,
      "쑉": 1867,
      "쑌": 1868,
      "쑝": 1869,
      "쑤": 1870,
      "쑥": 1871,
      "쑨": 1872,
      "쑫": 1873,
      "쑬": 1874,
      "쑴": 1875,
      "쑵": 1876,
      "쑷": 1877,
      "쑹": 1878,
      "쒀": 1879,
      "쒄": 1880,
      "쒐": 1881,
      "쒓": 1882,
      "쒔": 1883,
      "쒕": 1884,
      "쒜": 1885,
      "쒝": 1886,
      "쒠": 1887,
      "쒯": 1888,
      "쒰": 1889,
      "쒱": 1890,
      "쒵": 1891,
      "쒸": 1892,
      "쒹": 1893,
      "쒼": 1894,
      "쓕": 1895,
      "쓰": 1896,
      "쓱": 1897,
      "쓴": 1898,
      "쓸": 1899,
      "쓿": 1900,
      "씀": 1901,
      "씁": 1902,
      "씅": 1903,
      "씌": 1904,
      "씜": 1905,
      "씨": 1906,
      "씩": 1907,
      "씪": 1908,
      "씬": 1909,
      "씯": 1910,
      "씰": 1911,
      "씸": 1912,
      "씹": 1913,
      "씻": 1914,
      "씼": 1915,
      "씽": 1916,
      "아": 1917,
      "악": 1918,
      "안": 1919,
      "앉": 1920,
      "않": 1921,
      "앋": 1922,
      "알": 1923,
      "앍": 1924,
      "앎": 1925,
      "앏": 1926,
      "앓": 1927,
      "암": 1928,
      "압": 1929,
      "앖": 1930,
      "앗": 1931,
      "았": 1932,
      "앙": 1933,
      "앚": 1934,
      "앜": 1935,
      "앝": 1936,
      "앞": 1937,
      "앟": 1938,
      "애": 1939,
      "액": 1940,
      "앤": 1941,
      "앨": 1942,
      "앰": 1943,
      "앱": 1944,
      "앳": 1945,
      "앴": 1946,
      "앵": 1947,
      "야": 1948,
      "약": 1949,
      "얀": 1950,
      "얃": 1951,
      "얄": 1952,
      "얆": 1953,
      "얇": 1954,
      "얉": 1955,
      "얊": 1956,
      "얋": 1957,
      "얌": 1958,
      "얍": 1959,
      "얏": 1960,
      "얐": 1961,
      "양": 1962,
      "얒": 1963,
      "얕": 1964,
      "얖": 1965,
      "얗": 1966,
      "얘": 1967,
      "얙": 1968,
      "얜": 1969,
      "얟": 1970,
      "얠": 1971,
      "얫": 1972,
      "얬": 1973,
      "얭": 1974,
      "어": 1975,
      "억": 1976,
      "얶": 1977,
      "언": 1978,
      "얹": 1979,
      "얺": 1980,
      "얻": 1981,
      "얼": 1982,
      "얽": 1983,
      "얾": 1984,
      "엃": 1985,
      "엄": 1986,
      "업": 1987,
      "없": 1988,
      "엇": 1989,
      "었": 1990,
      "엉": 1991,
      "엊": 1992,
      "엌": 1993,
      "엍": 1994,
      "엎": 1995,
      "엏": 1996,
      "에": 1997,
      "엑": 1998,
      "엔": 1999,
      "엘": 2000,
      "엠": 2001,
      "엡": 2002,
      "엣": 2003,
      "엤": 2004,
      "엥": 2005,
      "여": 2006,
      "역": 2007,
      "엮": 2008,
      "연": 2009,
      "열": 2010,
      "엵": 2011,
      "엷": 2012,
      "염": 2013,
      "엽": 2014,
      "엾": 2015,
      "엿": 2016,
      "였": 2017,
      "영": 2018,
      "옂": 2019,
      "옄": 2020,
      "옅": 2021,
      "옆": 2022,
      "옇": 2023,
      "예": 2024,
      "옉": 2025,
      "옌": 2026,
      "옐": 2027,
      "옘": 2028,
      "옙": 2029,
      "옛": 2030,
      "옜": 2031,
      "옝": 2032,
      "옣": 2033,
      "오": 2034,
      "옥": 2035,
      "온": 2036,
      "옫": 2037,
      "올": 2038,
      "옭": 2039,
      "옮": 2040,
      "옯": 2041,
      "옳": 2042,
      "옴": 2043,
      "옵": 2044,
      "옶": 2045,
      "옷": 2046,
      "옸": 2047,
      "옹": 2048,
      "옻": 2049,
      "옾": 2050,
      "와": 2051,
      "왁": 2052,
      "완": 2053,
      "왅": 2054,
      "왈": 2055,
      "왐": 2056,
      "왑": 2057,
      "왓": 2058,
      "왔": 2059,
      "왕": 2060,
      "왖": 2061,
      "왜": 2062,
      "왝": 2063,
      "왠": 2064,
      "왤": 2065,
      "왬": 2066,
      "왭": 2067,
      "왰": 2068,
      "왱": 2069,
      "외": 2070,
      "왼": 2071,
      "욀": 2072,
      "욈": 2073,
      "욉": 2074,
      "욋": 2075,
      "욌": 2076,
      "욍": 2077,
      "요": 2078,
      "욕": 2079,
      "욖": 2080,
      "욘": 2081,
      "욜": 2082,
      "욤": 2083,
      "욥": 2084,
      "욧": 2085,
      "용": 2086,
      "욮": 2087,
      "우": 2088,
      "욱": 2089,
      "운": 2090,
      "울": 2091,
      "움": 2092,
      "웁": 2093,
      "웃": 2094,
      "웄": 2095,
      "웅": 2096,
      "웆": 2097,
      "웉": 2098,
      "워": 2099,
      "웍": 2100,
      "원": 2101,
      "웒": 2102,
      "월": 2103,
      "웜": 2104,
      "웝": 2105,
      "웟": 2106,
      "웠": 2107,
      "웡": 2108,
      "웨": 2109,
      "웩": 2110,
      "웬": 2111,
      "웰": 2112,
      "웸": 2113,
      "웹": 2114,
      "웻": 2115,
      "웽": 2116,
      "위": 2117,
      "윅": 2118,
      "윈": 2119,
      "윌": 2120,
      "윔": 2121,
      "윗": 2122,
      "윙": 2123,
      "유": 2124,
      "육": 2125,
      "윤": 2126,
      "율": 2127,
      "윰": 2128,
      "윱": 2129,
      "윳": 2130,
      "융": 2131,
      "윷": 2132,
      "으": 2133,
      "윽": 2134,
      "은": 2135,
      "읃": 2136,
      "을": 2137,
      "읅": 2138,
      "읆": 2139,
      "읇": 2140,
      "읊": 2141,
      "음": 2142,
      "읍": 2143,
      "읎": 2144,
      "읏": 2145,
      "응": 2146,
      "읒": 2147,
      "읓": 2148,
      "읔": 2149,
      "읕": 2150,
      "읖": 2151,
      "읗": 2152,
      "의": 2153,
      "읜": 2154,
      "읠": 2155,
      "읫": 2156,
      "읭": 2157,
      "이": 2158,
      "익": 2159,
      "읶": 2160,
      "인": 2161,
      "읺": 2162,
      "읻": 2163,
      "일": 2164,
      "읽": 2165,
      "잃": 2166,
      "임": 2167,
      "입": 2168,
      "잆": 2169,
      "잇": 2170,
      "있": 2171,
      "잉": 2172,
      "잊": 2173,
      "잌": 2174,
      "잎": 2175,
      "잏": 2176,
      "자": 2177,
      "작": 2178,
      "잔": 2179,
      "잖": 2180,
      "잘": 2181,
      "잙": 2182,
      "잚": 2183,
      "잛": 2184,
      "잠": 2185,
      "잡": 2186,
      "잢": 2187,
      "잣": 2188,
      "잤": 2189,
      "장": 2190,
      "잦": 2191,
      "잧": 2192,
      "잪": 2193,
      "잫": 2194,
      "재": 2195,
      "잭": 2196,
      "잰": 2197,
      "잴": 2198,
      "잼": 2199,
      "잽": 2200,
      "잿": 2201,
      "쟀": 2202,
      "쟁": 2203,
      "쟂": 2204,
      "쟈": 2205,
      "쟌": 2206,
      "쟎": 2207,
      "쟜": 2208,
      "쟝": 2209,
      "쟤": 2210,
      "쟨": 2211,
      "쟷": 2212,
      "쟹": 2213,
      "저": 2214,
      "적": 2215,
      "전": 2216,
      "젆": 2217,
      "젇": 2218,
      "절": 2219,
      "젊": 2220,
      "젋": 2221,
      "젏": 2222,
      "점": 2223,
      "접": 2224,
      "젓": 2225,
      "젔": 2226,
      "정": 2227,
      "젖": 2228,
      "젚": 2229,
      "젛": 2230,
      "제": 2231,
      "젝": 2232,
      "젠": 2233,
      "젤": 2234,
      "젬": 2235,
      "젭": 2236,
      "젯": 2237,
      "젰": 2238,
      "젱": 2239,
      "젲": 2240,
      "져": 2241,
      "젹": 2242,
      "젼": 2243,
      "졀": 2244,
      "졈": 2245,
      "졉": 2246,
      "졋": 2247,
      "졌": 2248,
      "졍": 2249,
      "졎": 2250,
      "졔": 2251,
      "졘": 2252,
      "졩": 2253,
      "조": 2254,
      "족": 2255,
      "존": 2256,
      "졷": 2257,
      "졸": 2258,
      "졺": 2259,
      "좀": 2260,
      "좁": 2261,
      "좃": 2262,
      "종": 2263,
      "좆": 2264,
      "좇": 2265,
      "좋": 2266,
      "좌": 2267,
      "좍": 2268,
      "좐": 2269,
      "좔": 2270,
      "좜": 2271,
      "좝": 2272,
      "좡": 2273,
      "좬": 2274,
      "좼": 2275,
      "좽": 2276,
      "죄": 2277,
      "죅": 2278,
      "죈": 2279,
      "죌": 2280,
      "죕": 2281,
      "죗": 2282,
      "죙": 2283,
      "죠": 2284,
      "죡": 2285,
      "죤": 2286,
      "죨": 2287,
      "죵": 2288,
      "주": 2289,
      "죽": 2290,
      "준": 2291,
      "줄": 2292,
      "줅": 2293,
      "줌": 2294,
      "줍": 2295,
      "줏": 2296,
      "줐": 2297,
      "중": 2298,
      "줒": 2299,
      "줗": 2300,
      "줘": 2301,
      "줙": 2302,
      "줜": 2303,
      "줟": 2304,
      "줠": 2305,
      "줨": 2306,
      "줩": 2307,
      "줫": 2308,
      "줬": 2309,
      "줭": 2310,
      "줴": 2311,
      "줸": 2312,
      "쥄": 2313,
      "쥅": 2314,
      "쥉": 2315,
      "쥐": 2316,
      "쥑": 2317,
      "쥔": 2318,
      "쥘": 2319,
      "쥡": 2320,
      "쥣": 2321,
      "쥥": 2322,
      "쥬": 2323,
      "쥭": 2324,
      "쥰": 2325,
      "쥴": 2326,
      "쥼": 2327,
      "즁": 2328,
      "즈": 2329,
      "즉": 2330,
      "즌": 2331,
      "즐": 2332,
      "즘": 2333,
      "즙": 2334,
      "즛": 2335,
      "증": 2336,
      "즞": 2337,
      "지": 2338,
      "직": 2339,
      "진": 2340,
      "짆": 2341,
      "짇": 2342,
      "질": 2343,
      "짊": 2344,
      "짋": 2345,
      "짐": 2346,
      "집": 2347,
      "짒": 2348,
      "짓": 2349,
      "짔": 2350,
      "징": 2351,
      "짖": 2352,
      "짙": 2353,
      "짚": 2354,
      "짛": 2355,
      "짜": 2356,
      "짝": 2357,
      "짞": 2358,
      "짠": 2359,
      "짢": 2360,
      "짤": 2361,
      "짥": 2362,
      "짦": 2363,
      "짧": 2364,
      "짬": 2365,
      "짭": 2366,
      "짯": 2367,
      "짰": 2368,
      "짱": 2369,
      "짲": 2370,
      "째": 2371,
      "짹": 2372,
      "짺": 2373,
      "짼": 2374,
      "쨀": 2375,
      "쨈": 2376,
      "쨉": 2377,
      "쨋": 2378,
      "쨌": 2379,
      "쨍": 2380,
      "쨎": 2381,
      "쨑": 2382,
      "쨔": 2383,
      "쨕": 2384,
      "쨜": 2385,
      "쨩": 2386,
      "쨰": 2387,
      "쨴": 2388,
      "쨸": 2389,
      "쩀": 2390,
      "쩁": 2391,
      "쩃": 2392,
      "쩄": 2393,
      "쩅": 2394,
      "쩌": 2395,
      "쩍": 2396,
      "쩐": 2397,
      "쩔": 2398,
      "쩜": 2399,
      "쩝": 2400,
      "쩟": 2401,
      "쩠": 2402,
      "쩡": 2403,
      "쩢": 2404,
      "쩧": 2405,
      "쩨": 2406,
      "쩩": 2407,
      "쩬": 2408,
      "쩰": 2409,
      "쩹": 2410,
      "쩻": 2411,
      "쩼": 2412,
      "쩽": 2413,
      "쪄": 2414,
      "쪈": 2415,
      "쪌": 2416,
      "쪔": 2417,
      "쪗": 2418,
      "쪘": 2419,
      "쪙": 2420,
      "쪨": 2421,
      "쪼": 2422,
      "쪽": 2423,
      "쪾": 2424,
      "쫀": 2425,
      "쫄": 2426,
      "쫇": 2427,
      "쫌": 2428,
      "쫍": 2429,
      "쫏": 2430,
      "쫑": 2431,
      "쫒": 2432,
      "쫓": 2433,
      "쫗": 2434,
      "쫘": 2435,
      "쫙": 2436,
      "쫜": 2437,
      "쫫": 2438,
      "쫬": 2439,
      "쫭": 2440,
      "쫴": 2441,
      "쬐": 2442,
      "쬑": 2443,
      "쬔": 2444,
      "쬘": 2445,
      "쬠": 2446,
      "쭃": 2447,
      "쭈": 2448,
      "쭉": 2449,
      "쭊": 2450,
      "쭌": 2451,
      "쭐": 2452,
      "쭘": 2453,
      "쭙": 2454,
      "쭝": 2455,
      "쭤": 2456,
      "쮀": 2457,
      "쮄": 2458,
      "쮈": 2459,
      "쮸": 2460,
      "쯔": 2461,
      "쯕": 2462,
      "쯘": 2463,
      "쯤": 2464,
      "쯥": 2465,
      "쯧": 2466,
      "쯩": 2467,
      "쯪": 2468,
      "찌": 2469,
      "찍": 2470,
      "찎": 2471,
      "찐": 2472,
      "찔": 2473,
      "찕": 2474,
      "찜": 2475,
      "찝": 2476,
      "찟": 2477,
      "찡": 2478,
      "찢": 2479,
      "찣": 2480,
      "찦": 2481,
      "찧": 2482,
      "차": 2483,
      "착": 2484,
      "찬": 2485,
      "찮": 2486,
      "찰": 2487,
      "찱": 2488,
      "참": 2489,
      "찹": 2490,
      "찻": 2491,
      "찼": 2492,
      "창": 2493,
      "찾": 2494,
      "찿": 2495,
      "챃": 2496,
      "채": 2497,
      "책": 2498,
      "챈": 2499,
      "챌": 2500,
      "챔": 2501,
      "챕": 2502,
      "챗": 2503,
      "챘": 2504,
      "챙": 2505,
      "챠": 2506,
      "챡": 2507,
      "챤": 2508,
      "챦": 2509,
      "챱": 2510,
      "챳": 2511,
      "챵": 2512,
      "처": 2513,
      "척": 2514,
      "천": 2515,
      "철": 2516,
      "첨": 2517,
      "첩": 2518,
      "첫": 2519,
      "첬": 2520,
      "청": 2521,
      "첮": 2522,
      "체": 2523,
      "첵": 2524,
      "첸": 2525,
      "첼": 2526,
      "쳇": 2527,
      "쳉": 2528,
      "쳌": 2529,
      "쳐": 2530,
      "쳑": 2531,
      "쳔": 2532,
      "쳘": 2533,
      "쳚": 2534,
      "쳠": 2535,
      "쳣": 2536,
      "쳤": 2537,
      "쳥": 2538,
      "쳬": 2539,
      "쳰": 2540,
      "초": 2541,
      "촉": 2542,
      "촌": 2543,
      "촐": 2544,
      "촘": 2545,
      "촙": 2546,
      "촛": 2547,
      "촜": 2548,
      "총": 2549,
      "촞": 2550,
      "촟": 2551,
      "촣": 2552,
      "촤": 2553,
      "촥": 2554,
      "촨": 2555,
      "촬": 2556,
      "촴": 2557,
      "촷": 2558,
      "촸": 2559,
      "촹": 2560,
      "쵀": 2561,
      "최": 2562,
      "쵝": 2563,
      "쵸": 2564,
      "춀": 2565,
      "춋": 2566,
      "춌": 2567,
      "추": 2568,
      "축": 2569,
      "춘": 2570,
      "춚": 2571,
      "춛": 2572,
      "출": 2573,
      "춤": 2574,
      "춥": 2575,
      "춧": 2576,
      "충": 2577,
      "춰": 2578,
      "춴": 2579,
      "춸": 2580,
      "췀": 2581,
      "췁": 2582,
      "췃": 2583,
      "췄": 2584,
      "췅": 2585,
      "췆": 2586,
      "췌": 2587,
      "췍": 2588,
      "췟": 2589,
      "취": 2590,
      "췩": 2591,
      "췬": 2592,
      "췰": 2593,
      "췸": 2594,
      "췹": 2595,
      "췻": 2596,
      "츄": 2597,
      "츈": 2598,
      "츙": 2599,
      "츠": 2600,
      "측": 2601,
      "츤": 2602,
      "츨": 2603,
      "츩": 2604,
      "츰": 2605,
      "츱": 2606,
      "츳": 2607,
      "층": 2608,
      "치": 2609,
      "칙": 2610,
      "친": 2611,
      "칞": 2612,
      "칟": 2613,
      "칠": 2614,
      "칡": 2615,
      "침": 2616,
      "칩": 2617,
      "칫": 2618,
      "칭": 2619,
      "칮": 2620,
      "칰": 2621,
      "칲": 2622,
      "카": 2623,
      "칵": 2624,
      "칸": 2625,
      "칼": 2626,
      "캄": 2627,
      "캅": 2628,
      "캇": 2629,
      "캈": 2630,
      "캉": 2631,
      "캎": 2632,
      "캐": 2633,
      "캑": 2634,
      "캔": 2635,
      "캘": 2636,
      "캠": 2637,
      "캡": 2638,
      "캣": 2639,
      "캤": 2640,
      "캥": 2641,
      "캩": 2642,
      "캬": 2643,
      "캭": 2644,
      "컁": 2645,
      "커": 2646,
      "컥": 2647,
      "컨": 2648,
      "컫": 2649,
      "컬": 2650,
      "컴": 2651,
      "컵": 2652,
      "컷": 2653,
      "컸": 2654,
      "컹": 2655,
      "컼": 2656,
      "케": 2657,
      "켁": 2658,
      "켄": 2659,
      "켈": 2660,
      "켐": 2661,
      "켓": 2662,
      "켔": 2663,
      "켕": 2664,
      "켜": 2665,
      "켝": 2666,
      "켠": 2667,
      "켤": 2668,
      "켬": 2669,
      "켭": 2670,
      "켯": 2671,
      "켰": 2672,
      "켱": 2673,
      "코": 2674,
      "콕": 2675,
      "콘": 2676,
      "콜": 2677,
      "콤": 2678,
      "콥": 2679,
      "콧": 2680,
      "콩": 2681,
      "콰": 2682,
      "콱": 2683,
      "콴": 2684,
      "콸": 2685,
      "쾅": 2686,
      "쾌": 2687,
      "쾍": 2688,
      "쾐": 2689,
      "쾜": 2690,
      "쾡": 2691,
      "쾰": 2692,
      "쿄": 2693,
      "쿠": 2694,
      "쿡": 2695,
      "쿤": 2696,
      "쿨": 2697,
      "쿰": 2698,
      "쿱": 2699,
      "쿳": 2700,
      "쿵": 2701,
      "쿺": 2702,
      "쿼": 2703,
      "쿽": 2704,
      "퀀": 2705,
      "퀄": 2706,
      "퀏": 2707,
      "퀑": 2708,
      "퀘": 2709,
      "퀜": 2710,
      "퀭": 2711,
      "퀴": 2712,
      "퀵": 2713,
      "퀸": 2714,
      "퀼": 2715,
      "큄": 2716,
      "큅": 2717,
      "큇": 2718,
      "큐": 2719,
      "큔": 2720,
      "큘": 2721,
      "큩": 2722,
      "크": 2723,
      "큭": 2724,
      "큰": 2725,
      "클": 2726,
      "큼": 2727,
      "큽": 2728,
      "큿": 2729,
      "킁": 2730,
      "킄": 2731,
      "키": 2732,
      "킥": 2733,
      "킨": 2734,
      "킬": 2735,
      "킴": 2736,
      "킵": 2737,
      "킷": 2738,
      "킸": 2739,
      "킹": 2740,
      "타": 2741,
      "탁": 2742,
      "탄": 2743,
      "탇": 2744,
      "탈": 2745,
      "탉": 2746,
      "탐": 2747,
      "탑": 2748,
      "탓": 2749,
      "탔": 2750,
      "탕": 2751,
      "탖": 2752,
      "태": 2753,
      "택": 2754,
      "탠": 2755,
      "탤": 2756,
      "탬": 2757,
      "탭": 2758,
      "탯": 2759,
      "탰": 2760,
      "탱": 2761,
      "탸": 2762,
      "턘": 2763,
      "터": 2764,
      "턱": 2765,
      "턴": 2766,
      "턷": 2767,
      "털": 2768,
      "텀": 2769,
      "텁": 2770,
      "텃": 2771,
      "텄": 2772,
      "텅": 2773,
      "텉": 2774,
      "테": 2775,
      "텍": 2776,
      "텐": 2777,
      "텔": 2778,
      "템": 2779,
      "텝": 2780,
      "텟": 2781,
      "텡": 2782,
      "텨": 2783,
      "텬": 2784,
      "텸": 2785,
      "텼": 2786,
      "텽": 2787,
      "톈": 2788,
      "토": 2789,
      "톡": 2790,
      "톤": 2791,
      "톧": 2792,
      "톨": 2793,
      "톰": 2794,
      "톱": 2795,
      "톳": 2796,
      "통": 2797,
      "톹": 2798,
      "톼": 2799,
      "톽": 2800,
      "퇀": 2801,
      "퇏": 2802,
      "퇑": 2803,
      "퇘": 2804,
      "퇴": 2805,
      "퇸": 2806,
      "퇼": 2807,
      "툇": 2808,
      "툐": 2809,
      "투": 2810,
      "툭": 2811,
      "툰": 2812,
      "툴": 2813,
      "툼": 2814,
      "툽": 2815,
      "툿": 2816,
      "퉁": 2817,
      "퉈": 2818,
      "퉌": 2819,
      "퉜": 2820,
      "퉝": 2821,
      "퉤": 2822,
      "퉥": 2823,
      "퉷": 2824,
      "튀": 2825,
      "튄": 2826,
      "튈": 2827,
      "튐": 2828,
      "튑": 2829,
      "튓": 2830,
      "튕": 2831,
      "튜": 2832,
      "튝": 2833,
      "튠": 2834,
      "튤": 2835,
      "튬": 2836,
      "튭": 2837,
      "트": 2838,
      "특": 2839,
      "튼": 2840,
      "튿": 2841,
      "틀": 2842,
      "틈": 2843,
      "틉": 2844,
      "틋": 2845,
      "틍": 2846,
      "틑": 2847,
      "틔": 2848,
      "틘": 2849,
      "티": 2850,
      "틱": 2851,
      "틴": 2852,
      "틷": 2853,
      "틸": 2854,
      "팀": 2855,
      "팁": 2856,
      "팃": 2857,
      "팅": 2858,
      "팊": 2859,
      "파": 2860,
      "팍": 2861,
      "팎": 2862,
      "판": 2863,
      "팓": 2864,
      "팔": 2865,
      "팖": 2866,
      "팙": 2867,
      "팜": 2868,
      "팝": 2869,
      "팟": 2870,
      "팠": 2871,
      "팡": 2872,
      "팤": 2873,
      "팥": 2874,
      "팦": 2875,
      "패": 2876,
      "팩": 2877,
      "팬": 2878,
      "팰": 2879,
      "팸": 2880,
      "팹": 2881,
      "팻": 2882,
      "팼": 2883,
      "팽": 2884,
      "퍄": 2885,
      "퍅": 2886,
      "퍠": 2887,
      "퍼": 2888,
      "퍽": 2889,
      "펀": 2890,
      "펄": 2891,
      "펌": 2892,
      "펍": 2893,
      "펏": 2894,
      "펐": 2895,
      "펑": 2896,
      "펕": 2897,
      "페": 2898,
      "펙": 2899,
      "펜": 2900,
      "펠": 2901,
      "펨": 2902,
      "펩": 2903,
      "펫": 2904,
      "펭": 2905,
      "펴": 2906,
      "편": 2907,
      "펼": 2908,
      "폄": 2909,
      "폅": 2910,
      "폇": 2911,
      "폈": 2912,
      "평": 2913,
      "폐": 2914,
      "폔": 2915,
      "폣": 2916,
      "포": 2917,
      "폭": 2918,
      "폰": 2919,
      "폴": 2920,
      "폼": 2921,
      "폽": 2922,
      "폿": 2923,
      "퐁": 2924,
      "퐅": 2925,
      "퐉": 2926,
      "퐜": 2927,
      "퐝": 2928,
      "푀": 2929,
      "표": 2930,
      "푝": 2931,
      "푠": 2932,
      "푤": 2933,
      "푯": 2934,
      "푸": 2935,
      "푹": 2936,
      "푼": 2937,
      "풀": 2938,
      "풂": 2939,
      "품": 2940,
      "풉": 2941,
      "풋": 2942,
      "풍": 2943,
      "풑": 2944,
      "풔": 2945,
      "풜": 2946,
      "풰": 2947,
      "퓨": 2948,
      "퓰": 2949,
      "퓸": 2950,
      "퓽": 2951,
      "프": 2952,
      "픈": 2953,
      "플": 2954,
      "픔": 2955,
      "픕": 2956,
      "픙": 2957,
      "픠": 2958,
      "픤": 2959,
      "피": 2960,
      "픽": 2961,
      "핀": 2962,
      "필": 2963,
      "핌": 2964,
      "핍": 2965,
      "핏": 2966,
      "핑": 2967,
      "하": 2968,
      "학": 2969,
      "한": 2970,
      "핝": 2971,
      "핞": 2972,
      "핟": 2973,
      "할": 2974,
      "핡": 2975,
      "핢": 2976,
      "핥": 2977,
      "핧": 2978,
      "함": 2979,
      "합": 2980,
      "핫": 2981,
      "핬": 2982,
      "항": 2983,
      "핮": 2984,
      "핰": 2985,
      "핳": 2986,
      "해": 2987,
      "핵": 2988,
      "핶": 2989,
      "핸": 2990,
      "핻": 2991,
      "핼": 2992,
      "햄": 2993,
      "햅": 2994,
      "햇": 2995,
      "했": 2996,
      "행": 2997,
      "햋": 2998,
      "햍": 2999,
      "햐": 3000,
      "햑": 3001,
      "햔": 3002,
      "햘": 3003,
      "햝": 3004,
      "햟": 3005,
      "햤": 3006,
      "향": 3007,
      "햫": 3008,
      "햬": 3009,
      "햿": 3010,
      "헀": 3011,
      "허": 3012,
      "헉": 3013,
      "헌": 3014,
      "헐": 3015,
      "헑": 3016,
      "험": 3017,
      "헙": 3018,
      "헛": 3019,
      "헜": 3020,
      "헝": 3021,
      "헠": 3022,
      "헡": 3023,
      "헣": 3024,
      "헤": 3025,
      "헥": 3026,
      "헨": 3027,
      "헬": 3028,
      "헴": 3029,
      "헵": 3030,
      "헷": 3031,
      "헸": 3032,
      "헹": 3033,
      "헿": 3034,
      "혀": 3035,
      "혁": 3036,
      "현": 3037,
      "혈": 3038,
      "혐": 3039,
      "협": 3040,
      "혓": 3041,
      "혔": 3042,
      "형": 3043,
      "혜": 3044,
      "혠": 3045,
      "혬": 3046,
      "혰": 3047,
      "호": 3048,
      "혹": 3049,
      "혼": 3050,
      "혿": 3051,
      "홀": 3052,
      "홅": 3053,
      "홇": 3054,
      "홈": 3055,
      "홉": 3056,
      "홋": 3057,
      "홍": 3058,
      "홑": 3059,
      "홓": 3060,
      "화": 3061,
      "확": 3062,
      "환": 3063,
      "활": 3064,
      "홤": 3065,
      "홥": 3066,
      "홧": 3067,
      "황": 3068,
      "홰": 3069,
      "홱": 3070,
      "횃": 3071,
      "횄": 3072,
      "횅": 3073,
      "회": 3074,
      "획": 3075,
      "횐": 3076,
      "횔": 3077,
      "횝": 3078,
      "횟": 3079,
      "횡": 3080,
      "횢": 3081,
      "효": 3082,
      "횬": 3083,
      "횹": 3084,
      "횽": 3085,
      "후": 3086,
      "훅": 3087,
      "훈": 3088,
      "훌": 3089,
      "훍": 3090,
      "훑": 3091,
      "훓": 3092,
      "훔": 3093,
      "훕": 3094,
      "훗": 3095,
      "훙": 3096,
      "훠": 3097,
      "훤": 3098,
      "훨": 3099,
      "훵": 3100,
      "훼": 3101,
      "훽": 3102,
      "휀": 3103,
      "휄": 3104,
      "휏": 3105,
      "휑": 3106,
      "휘": 3107,
      "휙": 3108,
      "휜": 3109,
      "휠": 3110,
      "휩": 3111,
      "휫": 3112,
      "휭": 3113,
      "휴": 3114,
      "휵": 3115,
      "휸": 3116,
      "휼": 3117,
      "흉": 3118,
      "흐": 3119,
      "흑": 3120,
      "흔": 3121,
      "흗": 3122,
      "흘": 3123,
      "흙": 3124,
      "흝": 3125,
      "흟": 3126,
      "흠": 3127,
      "흡": 3128,
      "흣": 3129,
      "흥": 3130,
      "흩": 3131,
      "흫": 3132,
      "희": 3133,
      "흭": 3134,
      "흰": 3135,
      "흴": 3136,
      "흽": 3137,
      "히": 3138,
      "힉": 3139,
      "힌": 3140,
      "힐": 3141,
      "힘": 3142,
      "힙": 3143,
      "힛": 3144,
      "힝": 3145,
      "##부": 3146,
      "##니": 3147,
      "##까": 3148,
      "##어": 3149,
      "##야": 3150,
      "##돼": 3151,
      "##섯": 3152,
      "##으": 3153,
      "##로": 3154,
      "##황": 3155,
      "##종": 3156,
      "##료": 3157,
      "##구": 3158,
      "##더": 3159,
      "##마": 3160,
      "##는": 3161,
      "##목": 3162,
      "##지": 3163,
      "##피": 3164,
      "##를": 3165,
      "##있": 3166,
      "##었": 3167,
      "##냐": 3168,
      "##겠": 3169,
      "##나": 3170,
      "##라": 3171,
      "##렸": 3172,
      "##네": 3173,
      "##규": 3174,
      "##봉": 3175,
      "##신": 3176,
      "##가": 3177,
      "##슨": 3178,
      "##맛": 3179,
      "##인": 3180,
      "##크": 3181,
      "##해": 3182,
      "##다": 3183,
      "##줘": 3184,
      "##키": 3185,
      "##요": 3186,
      "##카": 3187,
      "##페": 3188,
      "##을": 3189,
      "##도": 3190,
      "##뭐": 3191,
      "##했": 3192,
      "##거": 3193,
      "##든": 3194,
      "##매": 3195,
      "##에": 3196,
      "##민": 3197,
      "##되": 3198,
      "##디": 3199,
      "##성": 3200,
      "##데": 3201,
      "##이": 3202,
      "##고": 3203,
      "##만": 3204,
      "##뤗": 3205,
      "##당": 3206,
      "##같": 3207,
      "##은": 3208,
      "##전": 3209,
      "##됐": 3210,
      "##난": 3211,
      "##음": 3212,
      "##터": 3213,
      "##자": 3214,
      "##분": 3215,
      "##언": 3216,
      "##짜": 3217,
      "##곶": 3218,
      "##왐": 3219,
      "##땐": 3220,
      "##행": 3221,
      "##갈": 3222,
      "##추": 3223,
      "##기": 3224,
      "##게": 3225,
      "##났": 3226,
      "##줄": 3227,
      "##긴": 3228,
      "##것": 3229,
      "##렀": 3230,
      "##수": 3231,
      "##려": 3232,
      "##놔": 3233,
      "##버": 3234,
      "##리": 3235,
      "##던": 3236,
      "##꾼": 3237,
      "##들": 3238,
      "##의": 3239,
      "##안": 3240,
      "##할": 3241,
      "##면": 3242,
      "##그": 3243,
      "##러": 3244,
      "##주": 3245,
      "##트": 3246,
      "##류": 3247,
      "##란": 3248,
      "##래": 3249,
      "##씀": 3250,
      "##직": 3251,
      "##죽": 3252,
      "##진": 3253,
      "##정": 3254,
      "##책": 3255,
      "##함": 3256,
      "##처": 3257,
      "##럼": 3258,
      "##글": 3259,
      "##보": 3260,
      "##하": 3261,
      "##치": 3262,
      "##밖": 3263,
      "##옵": 3264,
      "##반": 3265,
      "##떼": 3266,
      "##켜": 3267,
      "##멍": 3268,
      "##스": 3269,
      "##듯": 3270,
      "##우": 3271,
      "##사": 3272,
      "##호": 3273,
      "##씨": 3274,
      "##철": 3275,
      "##둬": 3276,
      "##두": 3277,
      "##뺌": 3278,
      "##랬": 3279,
      "##와": 3280,
      "##길": 3281,
      "##쿠": 3282,
      "##덴": 3283,
      "##혼": 3284,
      "##시": 3285,
      "##빠": 3286,
      "##잖": 3287,
      "##아": 3288,
      "##영": 3289,
      "##릉": 3290,
      "##텐": 3291,
      "##약": 3292,
      "##느": 3293,
      "##쟁": 3294,
      "##회": 3295,
      "##집": 3296,
      "##볼": 3297,
      "##화": 3298,
      "##오": 3299,
      "##말": 3300,
      "##속": 3301,
      "##벌": 3302,
      "##런": 3303,
      "##갔": 3304,
      "##패": 3305,
      "##딩": 3306,
      "##ᆞ": 3307,
      "##ᆯ": 3308,
      "##렝": 3309,
      "##찰": 3310,
      "##연": 3311,
      "##출": 3312,
      "##앗": 3313,
      "##생": 3314,
      "##상": 3315,
      "##촐": 3316,
      "##물": 3317,
      "##닥": 3318,
      "##찌": 3319,
      "##걸": 3320,
      "##잰": 3321,
      "##믄": 3322,
      "##계": 3323,
      "##발": 3324,
      "##한": 3325,
      "##였": 3326,
      "##랑": 3327,
      "##바": 3328,
      "##울": 3329,
      "##큼": 3330,
      "##학": 3331,
      "##교": 3332,
      "##때": 3333,
      "##강": 3334,
      "##루": 3335,
      "##년": 3336,
      "##역": 3337,
      "##떡": 3338,
      "##악": 3339,
      "##투": 3340,
      "##병": 3341,
      "##원": 3342,
      "##젼": 3343,
      "##씸": 3344,
      "##혁": 3345,
      "##테": 3346,
      "##별": 3347,
      "##소": 3348,
      "##르": 3349,
      "##쳐": 3350,
      "##린": 3351,
      "##운": 3352,
      "##드": 3353,
      "##식": 3354,
      "##랜": 3355,
      "##형": 3356,
      "##닝": 3357,
      "##몸": 3358,
      "##작": 3359,
      "##깐": 3360,
      "##억": 3361,
      "##천": 3362,
      "##았": 3363,
      "##예": 3364,
      "##똥": 3365,
      "##문": 3366,
      "##쭈": 3367,
      "##필": 3368,
      "##줍": 3369,
      "##써": 3370,
      "##장": 3371,
      "##급": 3372,
      "##서": 3373,
      "##관": 3374,
      "##간": 3375,
      "##일": 3376,
      "##뤘": 3377,
      "##죄": 3378,
      "##셔": 3379,
      "##령": 3380,
      "##짓": 3381,
      "##른": 3382,
      "##군": 3383,
      "##척": 3384,
      "##비": 3385,
      "##퍼": 3386,
      "##껍": 3387,
      "##넨": 3388,
      "##타": 3389,
      "##칼": 3390,
      "##몽": 3391,
      "##눴": 3392,
      "##파": 3393,
      "##여": 3394,
      "##렇": 3395,
      "##삭": 3396,
      "##먹": 3397,
      "##맨": 3398,
      "##꼼": 3399,
      "##허": 3400,
      "##산": 3401,
      "##락": 3402,
      "##노": 3403,
      "##릇": 3404,
      "##번": 3405,
      "##방": 3406,
      "##모": 3407,
      "##릴": 3408,
      "##십": 3409,
      "##입": 3410,
      "##저": 3411,
      "##단": 3412,
      "##쯤": 3413,
      "##택": 3414,
      "##람": 3415,
      "##차": 3416,
      "##업": 3417,
      "##읍": 3418,
      "##커": 3419,
      "##미": 3420,
      "##쪽": 3421,
      "##개": 3422,
      "##법": 3423,
      "##녁": 3424,
      "##씩": 3425,
      "##줬": 3426,
      "##졌": 3427,
      "##팔": 3428,
      "##세": 3429,
      "##티": 3430,
      "##엽": 3431,
      "##망": 3432,
      "##각": 3433,
      "##낭": 3434,
      "##왔": 3435,
      "##곡": 3436,
      "##욕": 3437,
      "##심": 3438,
      "##꺼": 3439,
      "##굴": 3440,
      "##껄": 3441,
      "##름": 3442,
      "##째": 3443,
      "##액": 3444,
      "##대": 3445,
      "##동": 3446,
      "##열": 3447,
      "##덟": 3448,
      "##남": 3449,
      "##국": 3450,
      "##육": 3451,
      "##실": 3452,
      "##둥": 3453,
      "##친": 3454,
      "##양": 3455,
      "##햄": 3456,
      "##봐": 3457,
      "##새": 3458,
      "##엔": 3459,
      "##져": 3460,
      "##녔": 3461,
      "##통": 3462,
      "##ᆺ": 3463,
      "##헌": 3464,
      "##눠": 3465,
      "##웰": 3466,
      "##깡": 3467,
      "##밭": 3468,
      "##내": 3469,
      "##젠": 3470,
      "##뒁": 3471,
      "##선": 3472,
      "##엄": 3473,
      "##침": 3474,
      "##벳": 3475,
      "##띠": 3476,
      "##옌": 3477,
      "##흉": 3478,
      "##중": 3479,
      "##컵": 3480,
      "##댄": 3481,
      "##꽈": 3482,
      "##송": 3483,
      "##불": 3484,
      "##착": 3485,
      "##벽": 3486,
      "##독": 3487,
      "##엉": 3488,
      "##록": 3489,
      "##술": 3490,
      "##절": 3491,
      "##켄": 3492,
      "##무": 3493,
      "##효": 3494,
      "##율": 3495,
      "##청": 3496,
      "##본": 3497,
      "##뎌": 3498,
      "##백": 3499,
      "##짐": 3500,
      "##녜": 3501,
      "##봤": 3502,
      "##룩": 3503,
      "##삐": 3504,
      "##못": 3505,
      "##콤": 3506,
      "##짱": 3507,
      "##풀": 3508,
      "##금": 3509,
      "##제": 3510,
      "##봔": 3511,
      "##깨": 3512,
      "##빵": 3513,
      "##쓰": 3514,
      "##받": 3515,
      "##너": 3516,
      "##홉": 3517,
      "##궁": 3518,
      "##배": 3519,
      "##광": 3520,
      "##놀": 3521,
      "##핸": 3522,
      "##츠": 3523,
      "##촌": 3524,
      "##잠": 3525,
      "##따": 3526,
      "##뜻": 3527,
      "##껀": 3528,
      "##재": 3529,
      "##족": 3530,
      "##썩": 3531,
      "##맹": 3532,
      "##건": 3533,
      "##꼬": 3534,
      "##막": 3535,
      "##핀": 3536,
      "##벨": 3537,
      "##레": 3538,
      "##손": 3539,
      "##뒌": 3540,
      "##적": 3541,
      "##닮": 3542,
      "##위": 3543,
      "##승": 3544,
      "##없": 3545,
      "##흥": 3546,
      "##월": 3547,
      "##험": 3548,
      "##끼": 3549,
      "##코": 3550,
      "##찔": 3551,
      "##습": 3552,
      "##포": 3553,
      "##ᆱ": 3554,
      "##놨": 3555,
      "##된": 3556,
      "##죠": 3557,
      "##팩": 3558,
      "##력": 3559,
      "##웟": 3560,
      "##복": 3561,
      "##권": 3562,
      "##닌": 3563,
      "##북": 3564,
      "##경": 3565,
      "##셨": 3566,
      "##뚝": 3567,
      "##왓": 3568,
      "##용": 3569,
      "##담": 3570,
      "##왕": 3571,
      "##켕": 3572,
      "##렴": 3573,
      "##례": 3574,
      "##표": 3575,
      "##삼": 3576,
      "##쿨": 3577,
      "##걱": 3578,
      "##녀": 3579,
      "##플": 3580,
      "##축": 3581,
      "##붙": 3582,
      "##님": 3583,
      "##순": 3584,
      "##검": 3585,
      "##량": 3586,
      "##올": 3587,
      "##꾸": 3588,
      "##웠": 3589,
      "##갯": 3590,
      "##잎": 3591,
      "##히": 3592,
      "##근": 3593,
      "##앙": 3594,
      "##감": 3595,
      "##체": 3596,
      "##임": 3597,
      "##엥": 3598,
      "##폴": 3599,
      "##증": 3600,
      "##닐": 3601,
      "##싸": 3602,
      "##뒀": 3603,
      "##립": 3604,
      "##준": 3605,
      "##익": 3606,
      "##냥": 3607,
      "##꽁": 3608,
      "##박": 3609,
      "##꼭": 3610,
      "##질": 3611,
      "##명": 3612,
      "##쪄": 3613,
      "##공": 3614,
      "##렁": 3615,
      "##쉐": 3616,
      "##베": 3617,
      "##끠": 3618,
      "##워": 3619,
      "##탕": 3620,
      "##프": 3621,
      "##염": 3622,
      "##층": 3623,
      "##며": 3624,
      "##편": 3625,
      "##께": 3626,
      "##유": 3627,
      "##숭": 3628,
      "##뼈": 3629,
      "##혀": 3630,
      "##쾌": 3631,
      "##외": 3632,
      "##콰": 3633,
      "##살": 3634,
      "##밥": 3635,
      "##후": 3636,
      "##댕": 3637,
      "##겨": 3638,
      "##날": 3639,
      "##틴": 3640,
      "##젤": 3641,
      "##떤": 3642,
      "##찬": 3643,
      "##낸": 3644,
      "##젱": 3645,
      "##핑": 3646,
      "##뒈": 3647,
      "##즈": 3648,
      "##머": 3649,
      "##뀔": 3650,
      "##왁": 3651,
      "##녠": 3652,
      "##많": 3653,
      "##랐": 3654,
      "##덜": 3655,
      "##겟": 3656,
      "##벗": 3657,
      "##덕": 3658,
      "##놓": 3659,
      "##럴": 3660,
      "##벤": 3661,
      "##묘": 3662,
      "##톤": 3663,
      "##놩": 3664,
      "##ᆮ": 3665,
      "##태": 3666,
      "##창": 3667,
      "##움": 3668,
      "##판": 3669,
      "##랙": 3670,
      "##품": 3671,
      "##갖": 3672,
      "##끄": 3673,
      "##낀": 3674,
      "##극": 3675,
      "##춘": 3676,
      "##헤": 3677,
      "##팀": 3678,
      "##엠": 3679,
      "##꿩": 3680,
      "##골": 3681,
      "##틀": 3682,
      "##점": 3683,
      "##씹": 3684,
      "##엇": 3685,
      "##잣": 3686,
      "##좌": 3687,
      "##석": 3688,
      "##딥": 3689,
      "##혔": 3690,
      "##암": 3691,
      "##초": 3692,
      "##샀": 3693,
      "##뎅": 3694,
      "##온": 3695,
      "##림": 3696,
      "##균": 3697,
      "##헙": 3698,
      "##조": 3699,
      "##쉬": 3700,
      "##멘": 3701,
      "##향": 3702,
      "##픈": 3703,
      "##넹": 3704,
      "##겁": 3705,
      "##토": 3706,
      "##렵": 3707,
      "##욱": 3708,
      "##밧": 3709,
      "##빙": 3710,
      "##깝": 3711,
      "##곱": 3712,
      "##앵": 3713,
      "##찮": 3714,
      "##뢋": 3715,
      "##렛": 3716,
      "##짝": 3717,
      "##객": 3718,
      "##볍": 3719,
      "##겸": 3720,
      "##ᄏ": 3721,
      "##룻": 3722,
      "##곤": 3723,
      "##과": 3724,
      "##릿": 3725,
      "##쒜": 3726,
      "##떠": 3727,
      "##앤": 3728,
      "##똑": 3729,
      "##합": 3730,
      "##평": 3731,
      "##팟": 3732,
      "##뻤": 3733,
      "##갑": 3734,
      "##겐": 3735,
      "##옻": 3736,
      "##냉": 3737,
      "##꼿": 3738,
      "##럿": 3739,
      "##징": 3740,
      "##퓨": 3741,
      "##측": 3742,
      "##쿄": 3743,
      "##알": 3744,
      "##론": 3745,
      "##룹": 3746,
      "##엘": 3747,
      "##봅": 3748,
      "##취": 3749,
      "##푸": 3750,
      "##등": 3751,
      "##않": 3752,
      "##슬": 3753,
      "##럽": 3754,
      "##압": 3755,
      "##킹": 3756,
      "##쳤": 3757,
      "##땡": 3758,
      "##됫": 3759,
      "##캐": 3760,
      "##링": 3761,
      "##냈": 3762,
      "##센": 3763,
      "##괜": 3764,
      "##랗": 3765,
      "##샌": 3766,
      "##메": 3767,
      "##ᄆ": 3768,
      "##썼": 3769,
      "##잼": 3770,
      "##낫": 3771,
      "##곽": 3772,
      "##채": 3773,
      "##엿": 3774,
      "##ᆷ": 3775,
      "##셧": 3776,
      "##쫓": 3777,
      "##득": 3778,
      "##칩": 3779,
      "##달": 3780,
      "##섭": 3781,
      "##믕": 3782,
      "##ᄁ": 3783,
      "##눈": 3784,
      "##랭": 3785,
      "##찐": 3786,
      "##킨": 3787,
      "##켰": 3788,
      "##돌": 3789,
      "##잡": 3790,
      "##격": 3791,
      "##릅": 3792,
      "##쌘": 3793,
      "##견": 3794,
      "##싱": 3795,
      "##샵": 3796,
      "##숙": 3797,
      "##썬": 3798,
      "##넘": 3799,
      "##딱": 3800,
      "##듬": 3801,
      "##뵈": 3802,
      "##삘": 3803,
      "##뢰": 3804,
      "##색": 3805,
      "##쌀": 3806,
      "##껴": 3807,
      "##희": 3808,
      "##애": 3809,
      "##둴": 3810,
      "##퇴": 3811,
      "##쩡": 3812,
      "##댜": 3813,
      "##블": 3814,
      "##턴": 3815,
      "##캔": 3816,
      "##뜨": 3817,
      "##냇": 3818,
      "##녘": 3819,
      "##응": 3820,
      "##농": 3821,
      "##궜": 3822,
      "##환": 3823,
      "##케": 3824,
      "##쁘": 3825,
      "##웨": 3826,
      "##숲": 3827,
      "##늘": 3828,
      "##쓸": 3829,
      "##컨": 3830,
      "##롬": 3831,
      "##렌": 3832,
      "##협": 3833,
      "##값": 3834,
      "##팝": 3835,
      "##믹": 3836,
      "##텡": 3837,
      "##갚": 3838,
      "##붕": 3839,
      "##섬": 3840,
      "##퍽": 3841,
      "##ᆫ": 3842,
      "##ᄊ": 3843,
      "##딸": 3844,
      "##항": 3845,
      "##완": 3846,
      "##랩": 3847,
      "##쁜": 3848,
      "##싯": 3849,
      "##쥐": 3850,
      "##둠": 3851,
      "##될": 3852,
      "##잔": 3853,
      "##ᄀ": 3854,
      "##벼": 3855,
      "##껜": 3856,
      "##롱": 3857,
      "##뽄": 3858,
      "##뿐": 3859,
      "##꿔": 3860,
      "##련": 3861,
      "##현": 3862,
      "##얼": 3863,
      "##총": 3864,
      "##떵": 3865,
      "##굼": 3866,
      "##벵": 3867,
      "##능": 3868,
      "##흔": 3869,
      "##첩": 3870,
      "##촥": 3871,
      "##ᄒ": 3872,
      "##햇": 3873,
      "##섰": 3874,
      "##릭": 3875,
      "##엌": 3876,
      "##뜀": 3877,
      "##갓": 3878,
      "##짤": 3879,
      "##끔": 3880,
      "##쳔": 3881,
      "##누": 3882,
      "##폭": 3883,
      "##ᆽ": 3884,
      "##춰": 3885,
      "##칫": 3886,
      "##브": 3887,
      "##샤": 3888,
      "##눌": 3889,
      "##찍": 3890,
      "##낄": 3891,
      "##널": 3892,
      "##납": 3893,
      "##댁": 3894,
      "##헷": 3895,
      "##팡": 3896,
      "##셋": 3897,
      "##딘": 3898,
      "##멸": 3899,
      "##콘": 3900,
      "##겼": 3901,
      "##겻": 3902,
      "##씌": 3903,
      "##쌤": 3904,
      "##볶": 3905,
      "##옷": 3906,
      "##됩": 3907,
      "##줜": 3908,
      "##헨": 3909,
      "##빌": 3910,
      "##낼": 3911,
      "##푼": 3912,
      "##쩍": 3913,
      "##졍": 3914,
      "##똣": 3915,
      "##빼": 3916,
      "##김": 3917,
      "##퀴": 3918,
      "##넣": 3919,
      "##낌": 3920,
      "##댓": 3921,
      "##슈": 3922,
      "##션": 3923,
      "##쇼": 3924,
      "##뚤": 3925,
      "##템": 3926,
      "##답": 3927,
      "##꼴": 3928,
      "##텨": 3929,
      "##숨": 3930,
      "##넷": 3931,
      "##넌": 3932,
      "##뺏": 3933,
      "##칠": 3934,
      "##몇": 3935,
      "##쫀": 3936,
      "##쉽": 3937,
      "##겡": 3938,
      "##귀": 3939,
      "##잘": 3940,
      "##딪": 3941,
      "##힌": 3942,
      "##싶": 3943,
      "##듭": 3944,
      "##씽": 3945,
      "##윗": 3946,
      "##힘": 3947,
      "##삶": 3948,
      "##즙": 3949,
      "##좋": 3950,
      "##털": 3951,
      "##툰": 3952,
      "##줌": 3953,
      "##돈": 3954,
      "##웜": 3955,
      "##쥬": 3956,
      "##첨": 3957,
      "##잉": 3958,
      "##꽃": 3959,
      "##칙": 3960,
      "##ᆨ": 3961,
      "##콩": 3962,
      "##끗": 3963,
      "##꼈": 3964,
      "##슴": 3965,
      "##탁": 3966,
      "##헐": 3967,
      "##냄": 3968,
      "##컷": 3969,
      "##첵": 3970,
      "##숴": 3971,
      "##듣": 3972,
      "##뤠": 3973,
      "##왈": 3974,
      "##램": 3975,
      "##혈": 3976,
      "##댈": 3977,
      "##슥": 3978,
      "##흐": 3979,
      "##큰": 3980,
      "##앰": 3981,
      "##윤": 3982,
      "##흑": 3983,
      "##덩": 3984,
      "##붑": 3985,
      "##롷": 3986,
      "##또": 3987,
      "##땄": 3988,
      "##좁": 3989,
      "##쁠": 3990,
      "##탄": 3991,
      "##킷": 3992,
      "##빡": 3993,
      "##탈": 3994,
      "##논": 3995,
      "##탠": 3996,
      "##곳": 3997,
      "##쎄": 3998,
      "##옝": 3999,
      "##몰": 4000,
      "##웃": 4001,
      "##델": 4002,
      "##빤": 4003,
      "##궤": 4004,
      "##참": 4005,
      "##쪼": 4006,
      "##딨": 4007,
      "##뚱": 4008,
      "##얗": 4009,
      "##칭": 4010,
      "##뎀": 4011,
      "##쑤": 4012,
      "##닭": 4013,
      "##꿈": 4014,
      "##텼": 4015,
      "##맸": 4016,
      "##홀": 4017,
      "##썡": 4018,
      "##쭤": 4019,
      "##젝": 4020,
      "##흘": 4021,
      "##클": 4022,
      "##땝": 4023,
      "##궂": 4024,
      "##맞": 4025,
      "##퉜": 4026,
      "##멀": 4027,
      "##컬": 4028,
      "##겄": 4029,
      "##줨": 4030,
      "##릎": 4031,
      "##훼": 4032,
      "##펜": 4033,
      "##뤄": 4034,
      "##탓": 4035,
      "##밌": 4036,
      "##깍": 4037,
      "##뻐": 4038,
      "##둘": 4039,
      "##촉": 4040,
      "##뗀": 4041,
      "##쪈": 4042,
      "##젭": 4043,
      "##숫": 4044,
      "##룸": 4045,
      "##픔": 4046,
      "##즘": 4047,
      "##랫": 4048,
      "##폰": 4049,
      "##땅": 4050,
      "##숑": 4051,
      "##뱀": 4052,
      "##빴": 4053,
      "##앉": 4054,
      "##찻": 4055,
      "##럭": 4056,
      "##둔": 4057,
      "##넬": 4058,
      "##셤": 4059,
      "##팅": 4060,
      "##옛": 4061,
      "##핵": 4062,
      "##텅": 4063,
      "##옥": 4064,
      "##젓": 4065,
      "##륵": 4066,
      "##돔": 4067,
      "##ᄂ": 4068,
      "##졈": 4069,
      "##됬": 4070,
      "##밀": 4071,
      "##확": 4072,
      "##떈": 4073,
      "##륜": 4074,
      "##셜": 4075,
      "##팜": 4076,
      "##췄": 4077,
      "##앚": 4078,
      "##설": 4079,
      "##잃": 4080,
      "##툼": 4081,
      "##솥": 4082,
      "##싼": 4083,
      "##쁨": 4084,
      "##뜽": 4085,
      "##끊": 4086,
      "##눔": 4087,
      "##챙": 4088,
      "##곰": 4089,
      "##랄": 4090,
      "##냬": 4091,
      "##킬": 4092,
      "##쌩": 4093,
      "##범": 4094,
      "##꽝": 4095,
      "##끌": 4096,
      "##빨": 4097,
      "##뭇": 4098,
      "##웡": 4099,
      "##훈": 4100,
      "##슷": 4101,
      "##뭉": 4102,
      "##봣": 4103,
      "##활": 4104,
      "##ᄐ": 4105,
      "##념": 4106,
      "##짼": 4107,
      "##톱": 4108,
      "##쉑": 4109,
      "##놧": 4110,
      "##깁": 4111,
      "##녕": 4112,
      "##씰": 4113,
      "##큐": 4114,
      "##쳠": 4115,
      "##웁": 4116,
      "##갠": 4117,
      "##씬": 4118,
      "##뷔": 4119,
      "##결": 4120,
      "##핍": 4121,
      "##롸": 4122,
      "##묵": 4123,
      "##엣": 4124,
      "##빗": 4125,
      "##겹": 4126,
      "##찜": 4127,
      "##뿌": 4128,
      "##힐": 4129,
      "##샘": 4130,
      "##뀐": 4131,
      "##최": 4132,
      "##잇": 4133,
      "##땜": 4134,
      "##봥": 4135,
      "##볏": 4136,
      "##짚": 4137,
      "##쪘": 4138,
      "##퉁": 4139,
      "##훅": 4140,
      "##ᄉ": 4141,
      "##ᄄ": 4142,
      "##쾅": 4143,
      "##먼": 4144,
      "##닿": 4145,
      "##쭉": 4146,
      "##덤": 4147,
      "##콜": 4148,
      "##몬": 4149,
      "##겅": 4150,
      "##접": 4151,
      "##졸": 4152,
      "##맥": 4153,
      "##놈": 4154,
      "##딜": 4155,
      "##톡": 4156,
      "##걔": 4157,
      "##뛰": 4158,
      "##븐": 4159,
      "##솜": 4160,
      "##밟": 4161,
      "##헹": 4162,
      "##픽": 4163,
      "##싫": 4164,
      "##떄": 4165,
      "##넛": 4166,
      "##벙": 4167,
      "##꼇": 4168,
      "##랴": 4169,
      "##찝": 4170,
      "##핏": 4171,
      "##낑": 4172,
      "##짬": 4173,
      "##뽕": 4174,
      "##떻": 4175,
      "##멤": 4176,
      "##팍": 4177,
      "##ᆸ": 4178,
      "##욤": 4179,
      "##튼": 4180,
      "##펴": 4181,
      "##앱": 4182,
      "##썽": 4183,
      "##쇄": 4184,
      "##괴": 4185,
      "##앴": 4186,
      "##궈": 4187,
      "##헉": 4188,
      "##깥": 4189,
      "##츰": 4190,
      "##쌌": 4191,
      "##멜": 4192,
      "##렷": 4193,
      "##멈": 4194,
      "##댐": 4195,
      "##좀": 4196,
      "##깠": 4197,
      "##떨": 4198,
      "##솟": 4199,
      "##궝": 4200,
      "##굘": 4201,
      "##휴": 4202,
      "##얜": 4203,
      "##뜩": 4204,
      "##뷰": 4205,
      "##룰": 4206,
      "##밤": 4207,
      "##꼽": 4208,
      "##귤": 4209,
      "##얹": 4210,
      "##빔": 4211,
      "##틱": 4212,
      "##탱": 4213,
      "##굽": 4214,
      "##킴": 4215,
      "##굿": 4216,
      "##껑": 4217,
      "##찼": 4218,
      "##튬": 4219,
      "##끈": 4220,
      "##뀌": 4221,
      "##룡": 4222,
      "##씻": 4223,
      "##첸": 4224,
      "##랏": 4225,
      "##텔": 4226,
      "##냰": 4227,
      "##긋": 4228,
      "##툴": 4229,
      "##튀": 4230,
      "##쿡": 4231,
      "##됭": 4232,
      "##볕": 4233,
      "##롭": 4234,
      "##맙": 4235,
      "##턱": 4236,
      "##띡": 4237,
      "##랍": 4238,
      "##꼐": 4239,
      "##ᄎ": 4240,
      "##넉": 4241,
      "##쳥": 4242,
      "##닷": 4243,
      "##콕": 4244,
      "##짇": 4245,
      "##듸": 4246,
      "##탭": 4247,
      "##둣": 4248,
      "##봍": 4249,
      "##껸": 4250,
      "##쌸": 4251,
      "##둿": 4252,
      "##률": 4253,
      "##깎": 4254,
      "##앞": 4255,
      "##묾": 4256,
      "##늙": 4257,
      "##휘": 4258,
      "##밍": 4259,
      "##혜": 4260,
      "##폐": 4261,
      "##빅": 4262,
      "##옴": 4263,
      "##갤": 4264,
      "##칸": 4265,
      "##뒤": 4266,
      "##뚜": 4267,
      "##뒛": 4268,
      "##벅": 4269,
      "##존": 4270,
      "##깽": 4271,
      "##찾": 4272,
      "##므": 4273,
      "##곧": 4274,
      "##덧": 4275,
      "##땔": 4276,
      "##끓": 4277,
      "##얀": 4278,
      "##뮤": 4279,
      "##ᆢ": 4280,
      "##빽": 4281,
      "##멋": 4282,
      "##씁": 4283,
      "##빛": 4284,
      "##풍": 4285,
      "##쌍": 4286,
      "##쨌": 4287,
      "##켭": 4288,
      "##뜰": 4289,
      "##톳": 4290,
      "##꽤": 4291,
      "##읽": 4292,
      "##봄": 4293,
      "##늬": 4294,
      "##얘": 4295,
      "##옹": 4296,
      "##쭝": 4297,
      "##쌈": 4298,
      "##콧": 4299,
      "##꺾": 4300,
      "##챗": 4301,
      "##컴": 4302,
      "##즐": 4303,
      "##셉": 4304,
      "##촨": 4305,
      "##멕": 4306,
      "##렉": 4307,
      "##깅": 4308,
      "##룬": 4309,
      "##롤": 4310,
      "##켈": 4311,
      "##쮸": 4312,
      "##뻑": 4313,
      "##꿍": 4314,
      "##홍": 4315,
      "##줏": 4316,
      "##킵": 4317,
      "##륙": 4318,
      "##낵": 4319,
      "##끝": 4320,
      "##ᄌ": 4321,
      "##퐁": 4322,
      "##변": 4323,
      "##믈": 4324,
      "##펠": 4325,
      "##봠": 4326,
      "##걀": 4327,
      "##ㅁ": 4328,
      "##잌": 4329,
      "##ㅣ": 4330,
      "##ᄃ": 4331,
      "##높": 4332,
      "##깔": 4333,
      "##쇠": 4334,
      "##펄": 4335,
      "##맣": 4336,
      "##충": 4337,
      "##륭": 4338,
      "##쿤": 4339,
      "##녹": 4340,
      "##펙": 4341,
      "##맜": 4342,
      "##셀": 4343,
      "##꼄": 4344,
      "##똘": 4345,
      "##붓": 4346,
      "##촬": 4347,
      "##햐": 4348,
      "##략": 4349,
      "##쳉": 4350,
      "##샃": 4351,
      "##뺀": 4352,
      "##콥": 4353,
      "##멩": 4354,
      "##솝": 4355,
      "##팽": 4356,
      "##쩌": 4357,
      "##됨": 4358,
      "##묻": 4359,
      "##뇨": 4360,
      "##딴": 4361,
      "##댔": 4362,
      "##뽑": 4363,
      "##쉰": 4364,
      "##슐": 4365,
      "##흠": 4366,
      "##봬": 4367,
      "##둑": 4368,
      "##헝": 4369,
      "##잤": 4370,
      "##윅": 4371,
      "##옆": 4372,
      "##획": 4373,
      "##닳": 4374,
      "##냑": 4375,
      "##왜": 4376,
      "##꾹": 4377,
      "##낍": 4378,
      "##됀": 4379,
      "##쯔": 4380,
      "##쩔": 4381,
      "##혹": 4382,
      "##캄": 4383,
      "##뜯": 4384,
      "##탐": 4385,
      "##깃": 4386,
      "##꽂": 4387,
      "##잿": 4388,
      "##엎": 4389,
      "##낟": 4390,
      "##굔": 4391,
      "##줫": 4392,
      "##꿤": 4393,
      "##낳": 4394,
      "##귄": 4395,
      "##윽": 4396,
      "##쳑": 4397,
      "##ᄍ": 4398,
      "##싰": 4399,
      "##띵": 4400,
      "##팬": 4401,
      "##빈": 4402,
      "##젯": 4403,
      "##찡": 4404,
      "##숍": 4405,
      "##갸": 4406,
      "##낮": 4407,
      "##굳": 4408,
      "##껭": 4409,
      "##삿": 4410,
      "##돋": 4411,
      "##긔": 4412,
      "##햅": 4413,
      "##싹": 4414,
      "##뇌": 4415,
      "##놘": 4416,
      "##쌉": 4417,
      "##썹": 4418,
      "##쩬": 4419,
      "##펼": 4420,
      "##킁": 4421,
      "##흙": 4422,
      "##웹": 4423,
      "##눅": 4424,
      "##뻔": 4425,
      "##섶": 4426,
      "##춧": 4427,
      "##찟": 4428,
      "##튜": 4429,
      "##쿵": 4430,
      "##탰": 4431,
      "##뜬": 4432,
      "##컹": 4433,
      "##쓴": 4434,
      "##쭘": 4435,
      "##웍": 4436,
      "##벢": 4437,
      "##둡": 4438,
      "##켱": 4439,
      "##솔": 4440,
      "##뻘": 4441,
      "##뻥": 4442,
      "##뉴": 4443,
      "##쏠": 4444,
      "##썰": 4445,
      "##쟀": 4446,
      "##멧": 4447,
      "##뵙": 4448,
      "##렜": 4449,
      "##푠": 4450,
      "##렙": 4451,
      "##낙": 4452,
      "##짢": 4453,
      "##죙": 4454,
      "##펀": 4455,
      "##냔": 4456,
      "##켯": 4457,
      "##컸": 4458,
      "##꿀": 4459,
      "##껏": 4460,
      "##딧": 4461,
      "##덮": 4462,
      "##핫": 4463,
      "##쓱": 4464,
      "##뻣": 4465,
      "##뇐": 4466,
      "##촛": 4467,
      "##큽": 4468,
      "##챘": 4469,
      "##뇽": 4470,
      "##섣": 4471,
      "##팠": 4472,
      "##룽": 4473,
      "##됑": 4474,
      "##샐": 4475,
      "##특": 4476,
      "##꼉": 4477,
      "##밑": 4478,
      "##믿": 4479,
      "##셈": 4480,
      "##홈": 4481,
      "##찹": 4482,
      "##컥": 4483,
      "##헥": 4484,
      "##땃": 4485,
      "##겆": 4486,
      "##늄": 4487,
      "##흡": 4488,
      "##읜": 4489,
      "##ᄋ": 4490,
      "##갱": 4491,
      "##봇": 4492,
      "##쏴": 4493,
      "##쫙": 4494,
      "##빳": 4495,
      "##썸": 4496,
      "##ㅏ": 4497,
      "##슛": 4498,
      "##뿔": 4499,
      "##ᆼ": 4500,
      "##ㅇ": 4501,
      "##웅": 4502,
      "##틸": 4503,
      "##돠": 4504,
      "##밉": 4505,
      "##쭐": 4506,
      "##눙": 4507,
      "##쟌": 4508,
      "##냅": 4509,
      "##칵": 4510,
      "##깻": 4511,
      "##밋": 4512,
      "##닦": 4513,
      "##멱": 4514,
      "##폿": 4515,
      "##죵": 4516,
      "##캅": 4517,
      "##얏": 4518,
      "##롯": 4519,
      "##넥": 4520,
      "##묶": 4521,
      "##뗑": 4522,
      "##됄": 4523,
      "##눗": 4524,
      "##졋": 4525,
      "##켠": 4526,
      "##헴": 4527,
      "##띄": 4528,
      "##퉈": 4529,
      "##ᄇ": 4530,
      "##뜸": 4531,
      "##둰": 4532,
      "##롄": 4533,
      "##잭": 4534,
      "##곘": 4535,
      "##즌": 4536,
      "##늦": 4537,
      "##ᄅ": 4538,
      "##닫": 4539,
      "##뉘": 4540,
      "##윌": 4541,
      "##툭": 4542,
      "##춤": 4543,
      "##푹": 4544,
      "##넝": 4545,
      "##뭔": 4546,
      "##훤": 4547,
      "##융": 4548,
      "##춥": 4549,
      "##읗": 4550,
      "##쨍": 4551,
      "##켬": 4552,
      "##껌": 4553,
      "##쫒": 4554,
      "##퀘": 4555,
      "##밸": 4556,
      "##땨": 4557,
      "##쾡": 4558,
      "##뺐": 4559,
      "##뱅": 4560,
      "##셰": 4561,
      "##뱉": 4562,
      "##뎄": 4563,
      "##혐": 4564,
      "##욀": 4565,
      "##촘": 4566,
      "##줭": 4567,
      "##긍": 4568,
      "##쌓": 4569,
      "##졘": 4570,
      "##뱃": 4571,
      "##뺑": 4572,
      "##깰": 4573,
      "##캉": 4574,
      "##쉘": 4575,
      "##짭": 4576,
      "##젖": 4577,
      "##녑": 4578,
      "##킥": 4579,
      "##삽": 4580,
      "##뉸": 4581,
      "##캘": 4582,
      "##맵": 4583,
      "##곁": 4584,
      "##렬": 4585,
      "##돕": 4586,
      "##엤": 4587,
      "##붇": 4588,
      "##닊": 4589,
      "##ᆰ": 4590,
      "##맻": 4591,
      "##듀": 4592,
      "##쉴": 4593,
      "##쎈": 4594,
      "##짆": 4595,
      "##늉": 4596,
      "##껐": 4597,
      "##짖": 4598,
      "##낚": 4599,
      "##슘": 4600,
      "##걷": 4601,
      "##톰": 4602,
      "##빰": 4603,
      "##쩐": 4604,
      "##펑": 4605,
      "##쏭": 4606,
      "##꿨": 4607,
      "##곹": 4608,
      "##쫄": 4609,
      "##웬": 4610,
      "##ㄷ": 4611,
      "##챠": 4612,
      "##밲": 4613,
      "##밴": 4614,
      "##꼰": 4615,
      "##뻬": 4616,
      "##렘": 4617,
      "##짹": 4618,
      "##팎": 4619,
      "##촹": 4620,
      "##좔": 4621,
      "##맘": 4622,
      "##뺄": 4623,
      "##픕": 4624,
      "##렐": 4625,
      "##붐": 4626,
      "##닉": 4627,
      "##뽀": 4628,
      "##셩": 4629,
      "##켓": 4630,
      "##귈": 4631,
      "##틔": 4632,
      "##픠": 4633,
      "##닙": 4634,
      "##엑": 4635,
      "##끕": 4636,
      "##탔": 4637,
      "##겊": 4638,
      "##짠": 4639,
      "##쫌": 4640,
      "##탑": 4641,
      "##싀": 4642,
      "##쨰": 4643,
      "##ᆲ": 4644,
      "##ㅃ": 4645,
      "##쌋": 4646,
      "##짧": 4647,
      "##몀": 4648,
      "##쪙": 4649,
      "##슝": 4650,
      "##긁": 4651,
      "##횐": 4652,
      "##챈": 4653,
      "##닛": 4654,
      "##츄": 4655,
      "##챦": 4656,
      "##괘": 4657,
      "##덥": 4658,
      "##썅": 4659,
      "##셍": 4660,
      "##돗": 4661,
      "##멓": 4662,
      "##샛": 4663,
      "##갗": 4664,
      "##듼": 4665,
      "##녯": 4666,
      "##햑": 4667,
      "##떳": 4668,
      "##뿍": 4669,
      "##츤": 4670,
      "##웒": 4671,
      "##쭌": 4672,
      "##뻠": 4673,
      "##뺵": 4674,
      "##괄": 4675,
      "##즉": 4676,
      "##쟎": 4677,
      "##맡": 4678,
      "##깄": 4679,
      "##ㅑ": 4680,
      "##캡": 4681,
      "##쇽": 4682,
      "##얬": 4683,
      "##앓": 4684,
      "##놤": 4685,
      "##삯": 4686,
      "##윈": 4687,
      "##옮": 4688,
      "##듈": 4689,
      "##쐐": 4690,
      "##칲": 4691,
      "##깼": 4692,
      "##팥": 4693,
      "##캥": 4694,
      "##촤": 4695,
      "##롼": 4696,
      "##녱": 4697,
      "##톨": 4698,
      "##걍": 4699,
      "##헛": 4700,
      "##몄": 4701,
      "##띤": 4702,
      "##닏": 4703,
      "##쨋": 4704,
      "##샷": 4705,
      "##묜": 4706,
      "##팙": 4707,
      "##숏": 4708,
      "##튭": 4709,
      "##뒐": 4710,
      "##눕": 4711,
      "##찢": 4712,
      "##춀": 4713,
      "##튓": 4714,
      "##겔": 4715,
      "##섀": 4716,
      "##겋": 4717,
      "##럤": 4718,
      "##틉": 4719,
      "##옇": 4720,
      "##넫": 4721,
      "##펫": 4722,
      "##삥": 4723,
      "##얇": 4724,
      "##깬": 4725,
      "##떴": 4726,
      "##듦": 4727,
      "##괭": 4728,
      "##췀": 4729,
      "##쬐": 4730,
      "##꺽": 4731,
      "##쥼": 4732,
      "##텀": 4733,
      "##폼": 4734,
      "##뢍": 4735,
      "##쿰": 4736,
      "##큭": 4737,
      "##쨜": 4738,
      "##땠": 4739,
      "##쩟": 4740,
      "##땀": 4741,
      "##낯": 4742,
      "##떰": 4743,
      "##쏘": 4744,
      "##꺠": 4745,
      "##뗐": 4746,
      "##숩": 4747,
      "##맺": 4748,
      "##뎡": 4749,
      "##숟": 4750,
      "##앨": 4751,
      "##갬": 4752,
      "##뒹": 4753,
      "##눵": 4754,
      "##딀": 4755,
      "##쑥": 4756,
      "##딋": 4757,
      "##뎐": 4758,
      "##풋": 4759,
      "##꾝": 4760,
      "##벡": 4761,
      "##훕": 4762,
      "##탉": 4763,
      "##귔": 4764,
      "##펐": 4765,
      "##넵": 4766,
      "##찦": 4767,
      "##밈": 4768,
      "##팸": 4769,
      "##덫": 4770,
      "##흗": 4771,
      "##쯕": 4772,
      "##꼍": 4773,
      "##랠": 4774,
      "##깟": 4775,
      "##귿": 4776,
      "##좍": 4777,
      "##뻿": 4778,
      "##텁": 4779,
      "##밷": 4780,
      "##핡": 4781,
      "##큘": 4782,
      "##앳": 4783,
      "##왼": 4784,
      "##쌕": 4785,
      "##얍": 4786,
      "##뮌": 4787,
      "##깜": 4788,
      "##넙": 4789,
      "##헸": 4790,
      "##ㄱ": 4791,
      "##쟝": 4792,
      "##웝": 4793,
      "##ㄴ": 4794,
      "##끽": 4795,
      "##헀": 4796,
      "##챤": 4797,
      "##쌔": 4798,
      "##춴": 4799,
      "##쟈": 4800,
      "##읃": 4801,
      "##ㅍ": 4802,
      "##얄": 4803,
      "##괐": 4804,
      "##ㅛ": 4805,
      "##ㅓ": 4806,
      "##뽁": 4807,
      "##읠": 4808,
      "##늑": 4809,
      "##팁": 4810,
      "##챔": 4811,
      "##퉤": 4812,
      "##릏": 4813,
      "##뀝": 4814,
      "##샥": 4815,
      "##텸": 4816,
      "##끤": 4817,
      "##틈": 4818,
      "##짯": 4819,
      "##쵸": 4820,
      "##꼳": 4821,
      "##샹": 4822,
      "##젔": 4823,
      "##욜": 4824,
      "##쒕": 4825,
      "##펌": 4826,
      "##딤": 4827,
      "##벰": 4828,
      "##쒀": 4829,
      "##꾀": 4830,
      "##쩜": 4831,
      "##뭄": 4832,
      "##얌": 4833,
      "##쳣": 4834,
      "##홧": 4835,
      "##밝": 4836,
      "##퀸": 4837,
      "##잽": 4838,
      "##꿧": 4839,
      "##젹": 4840,
      "##짰": 4841,
      "##놉": 4842,
      "##룐": 4843,
      "##잊": 4844,
      "##꿰": 4845,
      "##갛": 4846,
      "##샅": 4847,
      "##뚫": 4848,
      "##굉": 4849,
      "##뛸": 4850,
      "##쿼": 4851,
      "##췌": 4852,
      "##훌": 4853,
      "##켐": 4854,
      "##핥": 4855,
      "##잫": 4856,
      "##쁩": 4857,
      "##텽": 4858,
      "##쫏": 4859,
      "##됏": 4860,
      "##괙": 4861,
      "##윙": 4862,
      "##겉": 4863,
      "##ᇀ": 4864,
      "##녓": 4865,
      "##뉜": 4866,
      "##잴": 4867,
      "##됌": 4868,
      "##쐬": 4869,
      "##쩧": 4870,
      "##ㅎ": 4871,
      "##끙": 4872,
      "##섞": 4873,
      "##쪗": 4874,
      "##꿉": 4875,
      "##ᄑ": 4876,
      "##펭": 4877,
      "##옙": 4878,
      "##뎃": 4879,
      "##뼘": 4880,
      "##넴": 4881,
      "##뻗": 4882,
      "##넓": 4883,
      "##얕": 4884,
      "##쉔": 4885,
      "##쥔": 4886,
      "##맴": 4887,
      "##빱": 4888,
      "##쨈": 4889,
      "##냘": 4890,
      "##뮬": 4891,
      "##궐": 4892,
      "##싓": 4893,
      "##텍": 4894,
      "##콴": 4895,
      "##펏": 4896,
      "##칟": 4897,
      "##뢈": 4898,
      "##흰": 4899,
      "##륨": 4900,
      "##휙": 4901,
      "##얶": 4902,
      "##깩": 4903,
      "##낡": 4904,
      "##웩": 4905,
      "##앎": 4906,
      "##떱": 4907,
      "##캠": 4908,
      "##ᆡ": 4909,
      "##엡": 4910,
      "##힙": 4911,
      "##뵘": 4912,
      "##쌜": 4913,
      "##둼": 4914,
      "##떽": 4915,
      "##넜": 4916,
      "##깊": 4917,
      "##첼": 4918,
      "##쑨": 4919,
      "##첬": 4920,
      "##둤": 4921,
      "##븨": 4922,
      "##껫": 4923,
      "##튈": 4924,
      "##ㅌ": 4925,
      "##퀄": 4926,
      "##껕": 4927,
      "##쿱": 4928,
      "##헬": 4929,
      "##훗": 4930,
      "##믓": 4931,
      "##뾰": 4932,
      "##쟨": 4933,
      "##셴": 4934,
      "##곈": 4935,
      "##땟": 4936,
      "##읏": 4937,
      "##믐": 4938,
      "##띔": 4939,
      "##뽠": 4940,
      "##뿜": 4941,
      "##퀵": 4942,
      "##믜": 4943,
      "##탬": 4944,
      "##꽉": 4945,
      "##콸": 4946,
      "##뼜": 4947,
      "##맬": 4948,
      "##쫑": 4949,
      "##뚞": 4950,
      "##뷸": 4951,
      "##쪔": 4952,
      "##쯧": 4953,
      "##뒬": 4954,
      "##횄": 4955,
      "##윳": 4956,
      "##긂": 4957,
      "##퇘": 4958,
      "##쉼": 4959,
      "##붉": 4960,
      "##뎠": 4961,
      "##욘": 4962,
      "##랳": 4963,
      "##쉈": 4964,
      "##샴": 4965,
      "##탸": 4966,
      "##쎕": 4967,
      "##쌱": 4968,
      "##썻": 4969,
      "##뵌": 4970,
      "##랖": 4971,
      "##뵀": 4972,
      "##텝": 4973,
      "##젬": 4974,
      "##룔": 4975,
      "##샜": 4976,
      "##헿": 4977,
      "##덱": 4978,
      "##캇": 4979,
      "##젊": 4980,
      "##훑": 4981,
      "##솎": 4982,
      "##쎴": 4983,
      "##븟": 4984,
      "##뼁": 4985,
      "##쩨": 4986,
      "##뵤": 4987,
      "##볐": 4988,
      "##혠": 4989,
      "##꺆": 4990,
      "##뒝": 4991,
      "##쏙": 4992,
      "##낱": 4993,
      "##뿡": 4994,
      "##및": 4995,
      "##삣": 4996,
      "##ㅗ": 4997,
      "##뭅": 4998,
      "##덖": 4999,
      "##촙": 5000,
      "##폈": 5001,
      "##댑": 5002,
      "##짔": 5003,
      "##딲": 5004,
      "##쟤": 5005,
      "##벚": 5006,
      "##뛴": 5007,
      "##뤌": 5008,
      "##횟": 5009,
      "##떙": 5010,
      "##얻": 5011,
      "##셌": 5012,
      "##텄": 5013,
      "##뎜": 5014,
      "##삑": 5015,
      "##벛": 5016,
      "##ㄹ": 5017,
      "##돵": 5018,
      "##촞": 5019,
      "##욋": 5020,
      "##쒹": 5021,
      "##ㅐ": 5022,
      "##첫": 5023,
      "##쎙": 5024,
      "##궅": 5025,
      "##헵": 5026,
      "##꿘": 5027,
      "##뽓": 5028,
      "##숯": 5029,
      "##혓": 5030,
      "##궘": 5031,
      "##췅": 5032,
      "##휠": 5033,
      "##굲": 5034,
      "##갼": 5035,
      "##륄": 5036,
      "##샾": 5037,
      "##볔": 5038,
      "##갰": 5039,
      "##늠": 5040,
      "##뺼": 5041,
      "##틍": 5042,
      "##꽅": 5043,
      "##먄": 5044,
      "##윷": 5045,
      "##ㅅ": 5046,
      "##힛": 5047,
      "##쪾": 5048,
      "##뼌": 5049,
      "##몫": 5050,
      "##꽜": 5051,
      "##쯘": 5052,
      "##붸": 5053,
      "##꿴": 5054,
      "##샨": 5055,
      "##퀀": 5056,
      "##텃": 5057,
      "##뼛": 5058,
      "##섹": 5059,
      "##쨴": 5060,
      "##졩": 5061,
      "##맷": 5062,
      "##뎨": 5063,
      "##띨": 5064,
      "##뤼": 5065,
      "##똔": 5066,
      "##밨": 5067,
      "##럈": 5068,
      "##볓": 5069,
      "##짞": 5070,
      "##귑": 5071,
      "##뽈": 5072,
      "##솰": 5073,
      "##맑": 5074,
      "##딛": 5075,
      "##뇠": 5076,
      "##뚯": 5077,
      "##괸": 5078,
      "##딕": 5079,
      "##곌": 5080,
      "##슌": 5081,
      "##먈": 5082,
      "##싣": 5083,
      "##ㅆ": 5084,
      "##ㅠ": 5085,
      "##홥": 5086,
      "##낕": 5087,
      "##븡": 5088,
      "##쳇": 5089,
      "##눼": 5090,
      "##옄": 5091,
      "##뒨": 5092,
      "##뵐": 5093,
      "##읻": 5094,
      "##꽌": 5095,
      "##쩝": 5096,
      "##퀼": 5097,
      "##뺴": 5098,
      "##퀜": 5099,
      "##셸": 5100,
      "##멥": 5101,
      "##쑈": 5102,
      "##ㅊ": 5103,
      "##ᇁ": 5104,
      "##곗": 5105,
      "##빝": 5106,
      "##뚸": 5107,
      "##쥴": 5108,
      "##좆": 5109,
      "##춛": 5110,
      "##캭": 5111,
      "##뺸": 5112,
      "##쎠": 5113,
      "##겯": 5114,
      "##욌": 5115,
      "##빻": 5116,
      "##쌰": 5117,
      "##탤": 5118,
      "##샬": 5119,
      "##ㅂ": 5120,
      "##꿇": 5121,
      "##돟": 5122,
      "##핼": 5123,
      "##뮈": 5124,
      "##껬": 5125,
      "##솓": 5126,
      "##뫼": 5127,
      "##쉉": 5128,
      "##꼅": 5129,
      "##삔": 5130,
      "##츈": 5131,
      "##엊": 5132,
      "##폔": 5133,
      "##겍": 5134,
      "##굵": 5135,
      "##틋": 5136,
      "##옸": 5137,
      "##뗘": 5138,
      "##빘": 5139,
      "##덞": 5140,
      "##썜": 5141,
      "##챌": 5142,
      "##캣": 5143,
      "##닸": 5144,
      "##빚": 5145,
      "##뢀": 5146,
      "##덯": 5147,
      "##겝": 5148,
      "##홰": 5149,
      "##읔": 5150,
      "##잆": 5151,
      "##켔": 5152,
      "##뜹": 5153,
      "##깉": 5154,
      "##룝": 5155,
      "##폄": 5156,
      "##텬": 5157,
      "##횡": 5158,
      "##몃": 5159,
      "##솨": 5160,
      "##윰": 5161,
      "##둚": 5162,
      "##솽": 5163,
      "##ㅔ": 5164,
      "##텉": 5165,
      "##앝": 5166,
      "##씼": 5167,
      "##삠": 5168,
      "##읒": 5169,
      "##됙": 5170,
      "##팰": 5171,
      "##욥": 5172,
      "##룍": 5173,
      "##빕": 5174,
      "##흣": 5175,
      "##뽂": 5176,
      "##뵝": 5177,
      "##뙨": 5178,
      "##횔": 5179,
      "##긘": 5180,
      "##뷁": 5181,
      "##씜": 5182,
      "##젰": 5183,
      "##읕": 5184,
      "##믑": 5185,
      "##힉": 5186,
      "##쭙": 5187,
      "##꽥": 5188,
      "##촷": 5189,
      "##봑": 5190,
      "##웄": 5191,
      "##턘": 5192,
      "##걵": 5193,
      "##볌": 5194,
      "##닯": 5195,
      "##꿋": 5196,
      "##쁫": 5197,
      "##ㅡ": 5198,
      "##숱": 5199,
      "##윱": 5200,
      "##얐": 5201,
      "##끋": 5202,
      "##겜": 5203,
      "##뭡": 5204,
      "##톼": 5205,
      "##뼝": 5206,
      "##츨": 5207,
      "##뻮": 5208,
      "##뭘": 5209,
      "##훙": 5210,
      "##꺄": 5211,
      "##췃": 5212,
      "##쐉": 5213,
      "##휼": 5214,
      "##랸": 5215,
      "##뒸": 5216,
      "##챱": 5217,
      "##갇": 5218,
      "##훔": 5219,
      "##렫": 5220,
      "##죤": 5221,
      "##넸": 5222,
      "##뭍": 5223,
      "##궨": 5224,
      "##녂": 5225,
      "##슭": 5226,
      "##럇": 5227,
      "##젚": 5228,
      "##뢌": 5229,
      "##쐼": 5230,
      "##ᅟ": 5231,
      "##뱄": 5232,
      "##뙈": 5233,
      "##벱": 5234,
      "##캑": 5235,
      "##뒙": 5236,
      "##멨": 5237,
      "##힝": 5238,
      "##먀": 5239,
      "##ㅕ": 5240,
      "##겪": 5241,
      "##슉": 5242,
      "##텟": 5243,
      "##읫": 5244,
      "##쎂": 5245,
      "##홋": 5246,
      "##옐": 5247,
      "##툽": 5248,
      "##뤳": 5249,
      "##긱": 5250,
      "##렿": 5251,
      "##핌": 5252,
      "##햔": 5253,
      "##뗗": 5254,
      "##뙤": 5255,
      "##볖": 5256,
      "##귐": 5257,
      "##꾕": 5258,
      "##튿": 5259,
      "##ᆌ": 5260,
      "##촴": 5261,
      "##웽": 5262,
      "##씅": 5263,
      "##횹": 5264,
      "##믠": 5265,
      "##쌂": 5266,
      "##뒷": 5267,
      "##숄": 5268,
      "##딫": 5269,
      "##눤": 5270,
      "##쁑": 5271,
      "##냠": 5272,
      "##덷": 5273,
      "##듐": 5274,
      "##쉭": 5275,
      "##쎼": 5276,
      "##뒘": 5277,
      "##밪": 5278,
      "##갭": 5279,
      "##뤂": 5280,
      "##픙": 5281,
      "##쩽": 5282,
      "##싕": 5283,
      "##왑": 5284,
      "##뚼": 5285,
      "##탯": 5286,
      "##벴": 5287,
      "##릐": 5288,
      "##졉": 5289,
      "##ᅧ": 5290,
      "##ᇦ": 5291,
      "##큿": 5292,
      "##뭣": 5293,
      "##늗": 5294,
      "##몹": 5295,
      "##꾄": 5296,
      "##켁": 5297,
      "##꺅": 5298,
      "##앜": 5299,
      "##틘": 5300,
      "##뼉": 5301,
      "##ᅡ": 5302,
      "##뤈": 5303,
      "##궹": 5304,
      "##놯": 5305,
      "##궃": 5306,
      "##찕": 5307,
      "##븝": 5308,
      "##뎁": 5309,
      "##뾱": 5310,
      "##왰": 5311,
      "##녈": 5312,
      "##땁": 5313,
      "##냤": 5314,
      "##캬": 5315,
      "##흩": 5316,
      "##좡": 5317,
      "##빾": 5318,
      "##뵜": 5319,
      "##귁": 5320,
      "##ᆾ": 5321,
      "##엾": 5322,
      "##쎔": 5323,
      "##튠": 5324,
      "##큔": 5325,
      "##쳘": 5326,
      "##낏": 5327,
      "##륩": 5328,
      "##렄": 5329,
      "##겧": 5330,
      "##꽛": 5331,
      "##댸": 5332,
      "##윔": 5333,
      "##쏩": 5334,
      "##엏": 5335,
      "##핰": 5336,
      "##뚠": 5337,
      "##멎": 5338,
      "##쎡": 5339,
      "##뤡": 5340,
      "##횝": 5341,
      "##틑": 5342,
      "##쏜": 5343,
      "##쩠": 5344,
      "##놥": 5345,
      "##쉄": 5346,
      "##섦": 5347,
      "##뭥": 5348,
      "##ᅥ": 5349,
      "##쏨": 5350,
      "##깞": 5351,
      "##뗭": 5352,
      "##뀨": 5353,
      "##럔": 5354,
      "##딍": 5355,
      "##슁": 5356,
      "##띌": 5357,
      "##숀": 5358,
      "##똩": 5359,
      "##햤": 5360,
      "##풉": 5361,
      "##쏱": 5362,
      "##훠": 5363,
      "##몺": 5364,
      "##뗄": 5365,
      "##뿅": 5366,
      "##맒": 5367,
      "##뗴": 5368,
      "##눳": 5369,
      "##흫": 5370,
      "##몆": 5371,
      "##꽹": 5372,
      "##쫜": 5373,
      "##얭": 5374,
      "##굶": 5375,
      "##죈": 5376,
      "##뭏": 5377,
      "##콱": 5378,
      "##꽐": 5379,
      "##갋": 5380,
      "##삵": 5381,
      "##뗌": 5382,
      "##꺁": 5383,
      "##썍": 5384,
      "##쎌": 5385,
      "##몐": 5386,
      "##늡": 5387,
      "##곙": 5388,
      "##웻": 5389,
      "##좃": 5390,
      "##솼": 5391,
      "##햿": 5392,
      "##껨": 5393,
      "##덨": 5394,
      "##궛": 5395,
      "##ᆩ": 5396,
      "##쏼": 5397,
      "##왱": 5398,
      "##삡": 5399,
      "##떔": 5400,
      "##맽": 5401,
      "##싿": 5402,
      "##홑": 5403,
      "##뽜": 5404,
      "##맄": 5405,
      "##쥘": 5406,
      "##뤔": 5407,
      "##쨔": 5408,
      "##곺": 5409,
      "##쩃": 5410,
      "##횬": 5411,
      "##ㅈ": 5412,
      "##멶": 5413,
      "##췻": 5414,
      "##휸": 5415,
      "##쥰": 5416,
      "##껱": 5417,
      "##뽐": 5418,
      "##햬": 5419,
      "##ᆦ": 5420,
      "##켤": 5421,
      "##봈": 5422,
      "##괌": 5423,
      "##쫇": 5424,
      "##엍": 5425,
      "##쯩": 5426,
      "##곯": 5427,
      "##죡": 5428,
      "##뀠": 5429,
      "##끳": 5430,
      "##긧": 5431,
      "##뛍": 5432,
      "##팼": 5433,
      "##툿": 5434,
      "##ᇕ": 5435,
      "##봡": 5436,
      "##헣": 5437,
      "##캩": 5438,
      "##팊": 5439,
      "##긷": 5440,
      "##닺": 5441,
      "##젛": 5442,
      "##챃": 5443,
      "##떫": 5444,
      "##젋": 5445,
      "##툐": 5446,
      "##핬": 5447,
      "##잦": 5448,
      "##뉩": 5449,
      "##렽": 5450,
      "##먕": 5451,
      "##왝": 5452,
      "##옜": 5453,
      "##젆": 5454,
      "##쉿": 5455,
      "##뇸": 5456,
      "##횽": 5457,
      "##쎵": 5458,
      "##쒔": 5459,
      "##똠": 5460,
      "##둽": 5461,
      "##쫍": 5462,
      "##젇": 5463,
      "##쒝": 5464,
      "##귓": 5465,
      "##퓸": 5466,
      "##끎": 5467,
      "##샙": 5468,
      "##뻈": 5469,
      "##찧": 5470,
      "##큄": 5471,
      "##샆": 5472,
      "##옅": 5473,
      "##췹": 5474,
      "##ᅳ": 5475,
      "##쒠": 5476,
      "##ᅌ": 5477,
      "##줩": 5478,
      "##닪": 5479,
      "##옣": 5480,
      "##웸": 5481,
      "##꿎": 5482,
      "##캤": 5483,
      "##갷": 5484,
      "##맏": 5485,
      "##흴": 5486,
      "##휀": 5487,
      "##롔": 5488,
      "##륀": 5489,
      "##봒": 5490,
      "##퐅": 5491,
      "##쒯": 5492,
      "##랃": 5493,
      "##쩅": 5494,
      "##됍": 5495,
      "##뺘": 5496,
      "##휭": 5497,
      "##묠": 5498,
      "##왠": 5499,
      "##칞": 5500,
      "##뤙": 5501,
      "##떢": 5502,
      "##뇬": 5503,
      "##솖": 5504,
      "##컫": 5505,
      "##귾": 5506,
      "##꺨": 5507,
      "##핻": 5508,
      "##퀭": 5509,
      "##깹": 5510,
      "##쐅": 5511,
      "##푤": 5512,
      "##맀": 5513,
      "##낋": 5514,
      "##첮": 5515,
      "##ㅝ": 5516,
      "##룟": 5517,
      "##쭃": 5518,
      "##쏵": 5519,
      "##쎘": 5520,
      "##뻴": 5521,
      "##쯪": 5522,
      "##챕": 5523,
      "##쾍": 5524,
      "##줴": 5525,
      "##핧": 5526,
      "##퉌": 5527,
      "##둗": 5528,
      "##벋": 5529,
      "##곬": 5530,
      "##앍": 5531,
      "##늰": 5532,
      "##쉣": 5533,
      "##햫": 5534,
      "##땍": 5535,
      "##쌨": 5536,
      "##튤": 5537,
      "##뇰": 5538,
      "##슾": 5539,
      "##훍": 5540,
      "##쇵": 5541,
      "##풂": 5542,
      "##숸": 5543,
      "##꿕": 5544,
      "##쫘": 5545,
      "##챵": 5546,
      "##셥": 5547,
      "##뚬": 5548,
      "##렃": 5549,
      "##ㅋ": 5550,
      "##샋": 5551,
      "##닢": 5552,
      "##ᄈ": 5553,
      "##롈": 5554,
      "##썌": 5555,
      "##쏸": 5556,
      "##줐": 5557,
      "##얒": 5558,
      "##쒸": 5559,
      "##뱁": 5560,
      "##궥": 5561,
      "##퇑": 5562,
      "##봘": 5563,
      "##낣": 5564,
      "##폽": 5565,
      "##젲": 5566,
      "##큅": 5567,
      "##쇅": 5568,
      "##랟": 5569,
      "##춚": 5570,
      "##띈": 5571,
      "##짺": 5572,
      "##ㄲ": 5573,
      "##슽": 5574,
      "##읖": 5575,
      "##뺍": 5576,
      "##쌥": 5577,
      "##띰": 5578,
      "##벘": 5579,
      "##쇤": 5580,
      "##뜁": 5581,
      "##펩": 5582,
      "##뭬": 5583,
      "##튄": 5584,
      "##킄": 5585,
      "##뷴": 5586,
      "##믾": 5587,
      "##쑉": 5588,
      "##숼": 5589,
      "##돴": 5590,
      "##뉵": 5591,
      "##헠": 5592,
      "##뺨": 5593,
      "##ㆍ": 5594,
      "##쒄": 5595,
      "##넽": 5596,
      "##곀": 5597,
      "##풰": 5598,
      "##좐": 5599,
      "##껙": 5600,
      "##쨎": 5601,
      "##켝": 5602,
      "##뼤": 5603,
      "##붊": 5604,
      "##굣": 5605,
      "##펨": 5606,
      "##꽘": 5607,
      "##싄": 5608,
      "##먜": 5609,
      "##뗏": 5610,
      "##뛌": 5611,
      "##튕": 5612,
      "##뗸": 5613,
      "##짲": 5614,
      "##틷": 5615,
      "##몯": 5616,
      "##묭": 5617,
      "##팹": 5618,
      "##촸": 5619,
      "##좇": 5620,
      "##씪": 5621,
      "##늕": 5622,
      "##돤": 5623,
      "##쩄": 5624,
      "##닞": 5625,
      "##랔": 5626,
      "##휏": 5627,
      "##벆": 5628,
      "##닜": 5629,
      "##퇀": 5630,
      "##쑷": 5631,
      "##굥": 5632,
      "##꼔": 5633,
      "##ㅘ": 5634,
      "##왬": 5635,
      "##뉠": 5636,
      "##껗": 5637,
      "##쩻": 5638,
      "##멫": 5639,
      "##쨑": 5640,
      "##훨": 5641,
      "##뻉": 5642,
      "##챳": 5643,
      "##벧": 5644,
      "##믯": 5645,
      "##얃": 5646,
      "##맇": 5647,
      "##줙": 5648,
      "##맿": 5649,
      "##읓": 5650,
      "##앟": 5651,
      "##긇": 5652,
      "##돳": 5653,
      "##엃": 5654,
      "##쥣": 5655,
      "##뻭": 5656,
      "##앋": 5657,
      "##쑬": 5658,
      "##덛": 5659,
      "##얫": 5660,
      "##ᅨ": 5661,
      "##렾": 5662,
      "##뻰": 5663,
      "##굑": 5664,
      "##넁": 5665,
      "##싲": 5666,
      "##둭": 5667,
      "##ᇇ": 5668,
      "##욧": 5669,
      "##꿱": 5670,
      "##푀": 5671,
      "##줟": 5672,
      "##덣": 5673,
      "##놑": 5674,
      "##죅": 5675,
      "##옫": 5676,
      "##휩": 5677,
      "##곻": 5678,
      "##퓽": 5679,
      "##띃": 5680,
      "##롥": 5681,
      "##풔": 5682,
      "##컁": 5683,
      "##댷": 5684,
      "##ᆉ": 5685,
      "##픤": 5686,
      "##쏟": 5687,
      "##꾁": 5688,
      "##꿸": 5689,
      "##쩀": 5690,
      "##팻": 5691,
      "##껠": 5692,
      "##껵": 5693,
      "##댱": 5694,
      "##궙": 5695,
      "##옉": 5696,
      "##쌴": 5697,
      "##팤": 5698,
      "##ᅵ": 5699,
      "##ᇐ": 5700,
      "##꾜": 5701,
      "##홱": 5702,
      "##헜": 5703,
      "##갹": 5704,
      "##ᅢ": 5705,
      "##킸": 5706,
      "##댇": 5707,
      "##쐴": 5708,
      "##쩼": 5709,
      "##롶": 5710,
      "##짊": 5711,
      "##깸": 5712,
      "##맆": 5713,
      "##돛": 5714,
      "##뭤": 5715,
      "##갂": 5716,
      "##쨸": 5717,
      "##넿": 5718,
      "##깢": 5719,
      "##졀": 5720,
      "##ᄕ": 5721,
      "##괏": 5722,
      "##읊": 5723,
      "##뎬": 5724,
      "##솦": 5725,
      "##눰": 5726,
      "##쨩": 5727,
      "##꾿": 5728,
      "##팓": 5729,
      "##쬔": 5730,
      "##췰": 5731,
      "##귝": 5732,
      "##쟹": 5733,
      "##붼": 5734,
      "##퇸": 5735,
      "##꽨": 5736,
      "##븍": 5737,
      "##쎅": 5738,
      "##쑀": 5739,
      "##됮": 5740,
      "##봰": 5741,
      "##읶": 5742,
      "##ᅙ": 5743,
      "##퇏": 5744,
      "##췬": 5745,
      "##팦": 5746,
      "##떘": 5747,
      "##늪": 5748,
      "##뽝": 5749,
      "##끅": 5750,
      "##껩": 5751,
      "##쿳": 5752,
      "##섄": 5753,
      "##줒": 5754,
      "##퉝": 5755,
      "##쑁": 5756,
      "##깧": 5757,
      "##띱": 5758,
      "##ᇢ": 5759,
      "##껟": 5760,
      "##졔": 5761,
      "##니까": 5762,
      "아니": 5763,
      "##렇게": 5764,
      "##는데": 5765,
      "우리": 5766,
      "진짜": 5767,
      "근데": 5768,
      "그래": 5769,
      "이름": 5770,
      "그런": 5771,
      "이제": 5772,
      "그냥": 5773,
      "그거": 5774,
      "##지고": 5775,
      "사람": 5776,
      "##잖아": 5777,
      "그러": 5778,
      "이렇게": 5779,
      "##에서": 5780,
      "##라고": 5781,
      "그렇게": 5782,
      "내가": 5783,
      "그래서": 5784,
      "아이": 5785,
      "##으로": 5786,
      "거기": 5787,
      "##다고": 5788,
      "맞아": 5789,
      "##가지고": 5790,
      "너무": 5791,
      "##거든": 5792,
      "##하고": 5793,
      "이거": 5794,
      "나는": 5795,
      "하면": 5796,
      "생각": 5797,
      "지금": 5798,
      "하는": 5799,
      "##들이": 5800,
      "많이": 5801,
      "##으면": 5802,
      "그때": 5803,
      "들어": 5804,
      "하고": 5805,
      "약간": 5806,
      "해서": 5807,
      "##한테": 5808,
      "##하는": 5809,
      "그러니까": 5810,
      "##다가": 5811,
      "있어": 5812,
      "이런": 5813,
      "좋아": 5814,
      "나도": 5815,
      "완전": 5816,
      "##리고": 5817,
      "그런데": 5818,
      "##하면": 5819,
      "여기": 5820,
      "그게": 5821,
      "제주": 5822,
      "어디": 5823,
      "하나": 5824,
      "같은": 5825,
      "##신디": 5826,
      "가지고": 5827,
      "옛날": 5828,
      "그니까": 5829,
      "얘기": 5830,
      "##까지": 5831,
      "있는": 5832,
      "##해서": 5833,
      "자기": 5834,
      "##었어": 5835,
      "엄마": 5836,
      "##에는": 5837,
      "언니": 5838,
      "어떻": 5839,
      "모르": 5840,
      "##는거": 5841,
      "거야": 5842,
      "어떻게": 5843,
      "하니까": 5844,
      "그러면": 5845,
      "먹어": 5846,
      "것도": 5847,
      "아이고": 5848,
      "그럼": 5849,
      "없어": 5850,
      "##머니": 5851,
      "##니깐": 5852,
      "그리고": 5853,
      "##구나": 5854,
      "해야": 5855,
      "무슨": 5856,
      "제주도": 5857,
      "##것도": 5858,
      "##들은": 5859,
      "저기": 5860,
      "##음에": 5861,
      "##면서": 5862,
      "##으니까": 5863,
      "알아": 5864,
      "이름이": 5865,
      "##려고": 5866,
      "##하게": 5867,
      "사람이": 5868,
      "가서": 5869,
      "이게": 5870,
      "##면은": 5871,
      "친구": 5872,
      "같아": 5873,
      "있잖아": 5874,
      "엄청": 5875,
      "##이라": 5876,
      "조금": 5877,
      "##더라": 5878,
      "같이": 5879,
      "##부터": 5880,
      "##어서": 5881,
      "아무": 5882,
      "먹고": 5883,
      "##니다": 5884,
      "뭔가": 5885,
      "요즘": 5886,
      "시간": 5887,
      "그렇": 5888,
      "있고": 5889,
      "계속": 5890,
      "그걸": 5891,
      "하면서": 5892,
      "좋은": 5893,
      "나오": 5894,
      "나가": 5895,
      "##겠다": 5896,
      "##지만": 5897,
      "원래": 5898,
      "다른": 5899,
      "##더라고": 5900,
      "몰라": 5901,
      "했는데": 5902,
      "그래도": 5903,
      "한번": 5904,
      "맛있": 5905,
      "##었는데": 5906,
      "##학교": 5907,
      "그건": 5908,
      "게난": 5909,
      "##인데": 5910,
      "되게": 5911,
      "##주게": 5912,
      "얼마": 5913,
      "##번에": 5914,
      "##아서": 5915,
      "##인가": 5916,
      "##하지": 5917,
      "사람들": 5918,
      "##이랑": 5919,
      "왜냐": 5920,
      "##이야": 5921,
      "여자": 5922,
      "남자": 5923,
      "하지": 5924,
      "만들": 5925,
      "어떤": 5926,
      "아니고": 5927,
      "오늘": 5928,
      "보면": 5929,
      "##지는": 5930,
      "거지": 5931,
      "정도": 5932,
      "##다는": 5933,
      "아니야": 5934,
      "오빠": 5935,
      "맨날": 5936,
      "##문에": 5937,
      "학교": 5938,
      "닮아": 5939,
      "하는데": 5940,
      "제일": 5941,
      "거의": 5942,
      "우리가": 5943,
      "했어": 5944,
      "집에": 5945,
      "괜찮": 5946,
      "그것도": 5947,
      "##자기": 5948,
      "아빠": 5949,
      "##이나": 5950,
      "어떵": 5951,
      "##부난": 5952,
      "이젠": 5953,
      "다음에": 5954,
      "들어가": 5955,
      "있었": 5956,
      "##야지": 5957,
      "거기서": 5958,
      "아닌": 5959,
      "너네": 5960,
      "##았어": 5961,
      "때는": 5962,
      "##겠어": 5963,
      "기억": 5964,
      "갑자기": 5965,
      "##지도": 5966,
      "보고": 5967,
      "처음": 5968,
      "되는": 5969,
      "때문에": 5970,
      "해도": 5971,
      "힘들": 5972,
      "뭐냐": 5973,
      "##기도": 5974,
      "##이고": 5975,
      "선생": 5976,
      "아까": 5977,
      "##거야": 5978,
      "않아": 5979,
      "누구": 5980,
      "##이가": 5981,
      "있네": 5982,
      "##중에": 5983,
      "다니": 5984,
      "있는데": 5985,
      "돌아": 5986,
      "가고": 5987,
      "사람들이": 5988,
      "##리가": 5989,
      "##수다": 5990,
      "올라": 5991,
      "##보다": 5992,
      "##이라고": 5993,
      "먹을": 5994,
      "##리는": 5995,
      "혼자": 5996,
      "거라": 5997,
      "일단": 5998,
      "그랬": 5999,
      "공부": 6000,
      "아니라": 6001,
      "같애": 6002,
      "보니까": 6003,
      "애기": 6004,
      "옛날에": 6005,
      "이러": 6006,
      "갔다": 6007,
      "해가지고": 6008,
      "어머니": 6009,
      "솔직": 6010,
      "애들": 6011,
      "##보고": 6012,
      "결혼": 6013,
      "다시": 6014,
      "##ᆞᆯ": 6015,
      "가면": 6016,
      "##로나": 6017,
      "아직": 6018,
      "솔직히": 6019,
      "선생님": 6020,
      "##처럼": 6021,
      "살아": 6022,
      "나와": 6023,
      "##던데": 6024,
      "빨리": 6025,
      "##했어": 6026,
      "##에도": 6027,
      "먹는": 6028,
      "전화": 6029,
      "느낌": 6030,
      "다음": 6031,
      "있을": 6032,
      "코로나": 6033,
      "별로": 6034,
      "만나": 6035,
      "나중에": 6036,
      "있지": 6037,
      "##버지": 6038,
      "##이지": 6039,
      "가는": 6040,
      "우리는": 6041,
      "할머니": 6042,
      "거는": 6043,
      "##하니까": 6044,
      "나한테": 6045,
      "많아": 6046,
      "바로": 6047,
      "이상": 6048,
      "말해": 6049,
      "##가지": 6050,
      "##대로": 6051,
      "그것": 6052,
      "물어": 6053,
      "##겠지": 6054,
      "##기는": 6055,
      "말고": 6056,
      "##세요": 6057,
      "서울": 6058,
      "이십": 6059,
      "##등학교": 6060,
      "내려": 6061,
      "아니면": 6062,
      "너가": 6063,
      "수도": 6064,
      "이서": 6065,
      "ᄒᆞ": 6066,
      "언제": 6067,
      "##기가": 6068,
      "재미": 6069,
      "##해도": 6070,
      "운동": 6071,
      "##들도": 6072,
      "##이는": 6073,
      "##이네": 6074,
      "##하다": 6075,
      "말이": 6076,
      "##습니다": 6077,
      "여행": 6078,
      "와서": 6079,
      "##거라": 6080,
      "없는": 6081,
      "##그네": 6082,
      "머리": 6083,
      "가져": 6084,
      "##냐고": 6085,
      "그치": 6086,
      "전에": 6087,
      "되고": 6088,
      "같은데": 6089,
      "오래": 6090,
      "재밌": 6091,
      "정말": 6092,
      "뭐지": 6093,
      "##주고": 6094,
      "왜냐하면": 6095,
      "##라도": 6096,
      "마음": 6097,
      "밖에": 6098,
      "##적으로": 6099,
      "싫어": 6100,
      "있으면": 6101,
      "##해야": 6102,
      "나왔": 6103,
      "싶은": 6104,
      "보내": 6105,
      "시작": 6106,
      "알바": 6107,
      "그거는": 6108,
      "나이": 6109,
      "아예": 6110,
      "없고": 6111,
      "사진": 6112,
      "##어요": 6113,
      "안되": 6114,
      "먹었": 6115,
      "끝나": 6116,
      "아주": 6117,
      "이번에": 6118,
      "##마씨": 6119,
      "어느": 6120,
      "어제": 6121,
      "아침": 6122,
      "집에서": 6123,
      "누가": 6124,
      "이제는": 6125,
      "하루": 6126,
      "영화": 6127,
      "##그넹": 6128,
      "얼마나": 6129,
      "어쨌": 6130,
      "그런거": 6131,
      "가지": 6132,
      "그렇지": 6133,
      "일본": 6134,
      "사람은": 6135,
      "받아": 6136,
      "##거나": 6137,
      "학년": 6138,
      "동네": 6139,
      "##마다": 6140,
      "잘도": 6141,
      "먹으": 6142,
      "##밖에": 6143,
      "뭐라고": 6144,
      "자기가": 6145,
      "음식": 6146,
      "되는데": 6147,
      "싶어": 6148,
      "어쨌든": 6149,
      "##어나": 6150,
      "거난": 6151,
      "똑같": 6152,
      "##요일": 6153,
      "생각해": 6154,
      "얼굴": 6155,
      "##이면": 6156,
      "엄마가": 6157,
      "필요": 6158,
      "##으네": 6159,
      "만약": 6160,
      "##님이": 6161,
      "어서": 6162,
      "때도": 6163,
      "그럴": 6164,
      "이건": 6165,
      "되지": 6166,
      "이름가": 6167,
      "육지": 6168,
      "우린": 6169,
      "말을": 6170,
      "문제": 6171,
      "사는": 6172,
      "너는": 6173,
      "##려서": 6174,
      "삼십": 6175,
      "노래": 6176,
      "##근에": 6177,
      "##버리": 6178,
      "아들": 6179,
      "건데": 6180,
      "##었거든": 6181,
      "그거를": 6182,
      "##었지": 6183,
      "애들이": 6184,
      "##이다": 6185,
      "소리": 6186,
      "떨어": 6187,
      "##라는": 6188,
      "알지": 6189,
      "요새": 6190,
      "보여": 6191,
      "비싸": 6192,
      "했지": 6193,
      "그래가지고": 6194,
      "나랑": 6195,
      "옆에": 6196,
      "좋아해": 6197,
      "한국": 6198,
      "사람들은": 6199,
      "먹으면": 6200,
      "##어가": 6201,
      "##하면서": 6202,
      "나온": 6203,
      "##을까": 6204,
      "그때는": 6205,
      "##는지": 6206,
      "##는디": 6207,
      "걔네": 6208,
      "무사": 6209,
      "많은": 6210,
      "왜냐면": 6211,
      "##보면": 6212,
      "가야": 6213,
      "다섯": 6214,
      "해신디": 6215,
      "##주는": 6216,
      "##이니까": 6217,
      "하는거": 6218,
      "아이들": 6219,
      "##하는데": 6220,
      "무서": 6221,
      "병원": 6222,
      "생각이": 6223,
      "시험": 6224,
      "##어야": 6225,
      "지금은": 6226,
      "알고": 6227,
      "보리": 6228,
      "하면은": 6229,
      "그다": 6230,
      "하다가": 6231,
      "되면": 6232,
      "만약에": 6233,
      "아파": 6234,
      "하잖아": 6235,
      "먼저": 6236,
      "##습니까": 6237,
      "안해": 6238,
      "뭐야": 6239,
      "우리도": 6240,
      "있으니까": 6241,
      "여기서": 6242,
      "가이": 6243,
      "##만큼": 6244,
      "##에요": 6245,
      "뭐가": 6246,
      "아는": 6247,
      "지나": 6248,
      "##만원": 6249,
      "이번": 6250,
      "겨울": 6251,
      "안돼": 6252,
      "중국": 6253,
      "걔가": 6254,
      "##조건": 6255,
      "##했는데": 6256,
      "항상": 6257,
      "만들어": 6258,
      "맞지": 6259,
      "동생": 6260,
      "무조건": 6261,
      "##적인": 6262,
      "하여": 6263,
      "연락": 6264,
      "한데": 6265,
      "사실": 6266,
      "거고": 6267,
      "생각을": 6268,
      "##보니까": 6269,
      "찾아": 6270,
      "모르겠": 6271,
      "##스크": 6272,
      "##어도": 6273,
      "아프": 6274,
      "##았는데": 6275,
      "동안": 6276,
      "##리를": 6277,
      "##는게": 6278,
      "##심히": 6279,
      "사투": 6280,
      "##었던": 6281,
      "일이": 6282,
      "##워서": 6283,
      "식으로": 6284,
      "보통": 6285,
      "되니까": 6286,
      "어멍": 6287,
      "옛날에는": 6288,
      "수가": 6289,
      "스타": 6290,
      "아버지": 6291,
      "어릴": 6292,
      "걸로": 6293,
      "자꾸": 6294,
      "##아버지": 6295,
      "주고": 6296,
      "있거든": 6297,
      "집이": 6298,
      "##기로": 6299,
      "##사람": 6300,
      "열심히": 6301,
      "##인지": 6302,
      "내일": 6303,
      "사고": 6304,
      "혹시": 6305,
      "작은": 6306,
      "건강": 6307,
      "언니가": 6308,
      "봤어": 6309,
      "##라서": 6310,
      "이런거": 6311,
      "사람도": 6312,
      "있었어": 6313,
      "고등학교": 6314,
      "당연": 6315,
      "경허": 6316,
      "##가지구": 6317,
      "##지가": 6318,
      "무신": 6319,
      "절대": 6320,
      "처음에": 6321,
      "오십": 6322,
      "갔는데": 6323,
      "돌아가": 6324,
      "신기": 6325,
      "##마씸": 6326,
      "##부러": 6327,
      "달라": 6328,
      "잘못": 6329,
      "##장이": 6330,
      "놓고": 6331,
      "##겠다고": 6332,
      "##거지": 6333,
      "##이라도": 6334,
      "여름": 6335,
      "저녁": 6336,
      "##수과": 6337,
      "사이": 6338,
      "말했": 6339,
      "걱정": 6340,
      "보는": 6341,
      "재미있": 6342,
      "저거": 6343,
      "##크라": 6344,
      "##만은": 6345,
      "화장": 6346,
      "##한데": 6347,
      "##가서": 6348,
      "##전에": 6349,
      "앞에": 6350,
      "핸드": 6351,
      "모르겠어": 6352,
      "에이": 6353,
      "거기에": 6354,
      "하다": 6355,
      "갖고": 6356,
      "##추룩": 6357,
      "이걸": 6358,
      "미안": 6359,
      "##시간": 6360,
      "했던": 6361,
      "드라": 6362,
      "한다": 6363,
      "중요": 6364,
      "둘이": 6365,
      "좋아하는": 6366,
      "것이": 6367,
      "위에": 6368,
      "##끼리": 6369,
      "거기는": 6370,
      "말하는": 6371,
      "##친구": 6372,
      "##에서는": 6373,
      "나무": 6374,
      "##기를": 6375,
      "어려": 6376,
      "이것": 6377,
      "대학": 6378,
      "해주": 6379,
      "있다": 6380,
      "아이구": 6381,
      "준비": 6382,
      "얘기를": 6383,
      "핸드폰": 6384,
      "##였어": 6385,
      "못해": 6386,
      "따로": 6387,
      "뭐라": 6388,
      "##이이": 6389,
      "이름도": 6390,
      "다녀": 6391,
      "저번에": 6392,
      "잡아": 6393,
      "그걸로": 6394,
      "잠깐": 6395,
      "나오는": 6396,
      "##놓고": 6397,
      "##한거": 6398,
      "쓰고": 6399,
      "닮은": 6400,
      "하여튼": 6401,
      "타고": 6402,
      "아마": 6403,
      "돈이": 6404,
      "##잖아요": 6405,
      "이미": 6406,
      "하게": 6407,
      "유명": 6408,
      "아유": 6409,
      "맛있어": 6410,
      "지금도": 6411,
      "몰랐": 6412,
      "게임": 6413,
      "비슷": 6414,
      "##가는": 6415,
      "버스": 6416,
      "안에": 6417,
      "##건데": 6418,
      "하난": 6419,
      "제사": 6420,
      "##인이": 6421,
      "시켜": 6422,
      "##구마": 6423,
      "그만": 6424,
      "여러": 6425,
      "가게": 6426,
      "다르": 6427,
      "중에": 6428,
      "허난": 6429,
      "하영": 6430,
      "##들을": 6431,
      "말이야": 6432,
      "중간": 6433,
      "어어": 6434,
      "않고": 6435,
      "##수가": 6436,
      "하더라고": 6437,
      "키우": 6438,
      "이해": 6439,
      "이모": 6440,
      "서귀": 6441,
      "하멍": 6442,
      "말하": 6443,
      "해야지": 6444,
      "너도": 6445,
      "힘들어": 6446,
      "겅해": 6447,
      "싶다": 6448,
      "이거는": 6449,
      "##는거야": 6450,
      "아닌가": 6451,
      "일어나": 6452,
      "마스크": 6453,
      "거를": 6454,
      "요즘은": 6455,
      "세상": 6456,
      "얘가": 6457,
      "스타일": 6458,
      "아무튼": 6459,
      "이름는": 6460,
      "부모": 6461,
      "중학교": 6462,
      "##더니": 6463,
      "##리면": 6464,
      "##예요": 6465,
      "기다": 6466,
      "오는": 6467,
      "어른": 6468,
      "자리": 6469,
      "여섯": 6470,
      "돈을": 6471,
      "카페": 6472,
      "##여서": 6473,
      "들어오": 6474,
      "배우": 6475,
      "자기네": 6476,
      "했거든": 6477,
      "확실": 6478,
      "쓰는": 6479,
      "그러니깐": 6480,
      "사투리": 6481,
      "사십": 6482,
      "##신가": 6483,
      "##렸어": 6484,
      "##봤어": 6485,
      "기분": 6486,
      "그니깐": 6487,
      "허멍": 6488,
      "초등학교": 6489,
      "있었는데": 6490,
      "아방": 6491,
      "서귀포": 6492,
      "오고": 6493,
      "가끔": 6494,
      "냄새": 6495,
      "##시는": 6496,
      "##가면": 6497,
      "##와서": 6498,
      "회사": 6499,
      "아닌데": 6500,
      "##있어": 6501,
      "드라마": 6502,
      "할아버지": 6503,
      "마지": 6504,
      "가족": 6505,
      "없지": 6506,
      "한다고": 6507,
      "어차": 6508,
      "수업": 6509,
      "남편": 6510,
      "고기": 6511,
      "어차피": 6512,
      "만원": 6513,
      "##에서도": 6514,
      "오면": 6515,
      "##그냉": 6516,
      "프로": 6517,
      "아침에": 6518,
      "서로": 6519,
      "##아니": 6520,
      "하더라": 6521,
      "시간이": 6522,
      "고구마": 6523,
      "봤는데": 6524,
      "어디서": 6525,
      "들고": 6526,
      "대박": 6527,
      "마지막": 6528,
      "하나도": 6529,
      "##은거": 6530,
      "##스타": 6531,
      "허는": 6532,
      "##정도": 6533,
      "맞는": 6534,
      "괜찮아": 6535,
      "그다음에": 6536,
      "말도": 6537,
      "##가고": 6538,
      "졸업": 6539,
      "아빠가": 6540,
      "성격": 6541,
      "알았": 6542,
      "안하고": 6543,
      "맛이": 6544,
      "아아": 6545,
      "이시": 6546,
      "자체": 6547,
      "데려": 6548,
      "##한다": 6549,
      "김치": 6550,
      "##년에": 6551,
      "바다": 6552,
      "없이": 6553,
      "좋다": 6554,
      "##은데": 6555,
      "있어서": 6556,
      "이것도": 6557,
      "건가": 6558,
      "##시에": 6559,
      "커피": 6560,
      "일을": 6561,
      "경우": 6562,
      "아직도": 6563,
      "##이잖아": 6564,
      "장난": 6565,
      "우리집": 6566,
      "학원": 6567,
      "교수": 6568,
      "따라": 6569,
      "군대": 6570,
      "어린": 6571,
      "다녔": 6572,
      "##자가": 6573,
      "##냐면": 6574,
      "##지면": 6575,
      "않았": 6576,
      "보난": 6577,
      "##먹고": 6578,
      "친구가": 6579,
      "##해가지고": 6580,
      "##하잖아": 6581,
      "안나": 6582,
      "겅허": 6583,
      "그저": 6584,
      "대해서": 6585,
      "영어": 6586,
      "있어야": 6587,
      "##기고": 6588,
      "정신": 6589,
      "없는데": 6590,
      "할망": 6591,
      "하니깐": 6592,
      "##이었": 6593,
      "모든": 6594,
      "##있는": 6595,
      "##사가": 6596,
      "무시": 6597,
      "아니지": 6598,
      "없으니까": 6599,
      "##드는": 6600,
      "살았": 6601,
      "##하네": 6602,
      "##자고": 6603,
      "##지를": 6604,
      "그날": 6605,
      "입고": 6606,
      "했잖아": 6607,
      "##레스": 6608,
      "그디": 6609,
      "##까지는": 6610,
      "알았어": 6611,
      "그러게": 6612,
      "좋지": 6613,
      "스트": 6614,
      "##하기": 6615,
      "ᄒᆞᆫ": 6616,
      "갔어": 6617,
      "외국": 6618,
      "명이": 6619,
      "생활": 6620,
      "##다니": 6621,
      "이천": 6622,
      "했었": 6623,
      "이야": 6624,
      "허고": 6625,
      "올해": 6626,
      "##이어": 6627,
      "저는": 6628,
      "##아이": 6629,
      "##에다가": 6630,
      "어쩔": 6631,
      "이유": 6632,
      "모양": 6633,
      "옛날엔": 6634,
      "##겠네": 6635,
      "있다고": 6636,
      "##래도": 6637,
      "##리도": 6638,
      "된다": 6639,
      "상황": 6640,
      "##하난": 6641,
      "예쁘": 6642,
      "보면은": 6643,
      "나라": 6644,
      "거기가": 6645,
      "되잖아": 6646,
      "왔다": 6647,
      "##시고": 6648,
      "살고": 6649,
      "##디다": 6650,
      "##으면서": 6651,
      "거니까": 6652,
      "잘해": 6653,
      "사랑": 6654,
      "겅행": 6655,
      "걔는": 6656,
      "##라이": 6657,
      "뭔지": 6658,
      "존나": 6659,
      "누나": 6660,
      "기억이": 6661,
      "운전": 6662,
      "주는": 6663,
      "ᄀᆞ": 6664,
      "때가": 6665,
      "밑에": 6666,
      "나서": 6667,
      "선물": 6668,
      "제가": 6669,
      "하긴": 6670,
      "살짝": 6671,
      "##버려": 6672,
      "않을까": 6673,
      "##나서": 6674,
      "되나": 6675,
      "먹었어": 6676,
      "거기도": 6677,
      "일곱": 6678,
      "애가": 6679,
      "아이가": 6680,
      "신경": 6681,
      "##갖고": 6682,
      "##장에": 6683,
      "그러고": 6684,
      "시에": 6685,
      "그쪽": 6686,
      "다들": 6687,
      "고민": 6688,
      "부르": 6689,
      "오빠가": 6690,
      "##우다": 6691,
      "뒤에": 6692,
      "##리지": 6693,
      "새로": 6694,
      "우리나": 6695,
      "##져서": 6696,
      "때부터": 6697,
      "상관": 6698,
      "##히려": 6699,
      "좋을": 6700,
      "##줘야": 6701,
      "갔을": 6702,
      "요번에": 6703,
      "한라": 6704,
      "오히려": 6705,
      "받고": 6706,
      "확실히": 6707,
      "##지게": 6708,
      "가니까": 6709,
      "없어서": 6710,
      "스물": 6711,
      "##들이랑": 6712,
      "##사를": 6713,
      "주소": 6714,
      "보면서": 6715,
      "넘어": 6716,
      "아홉": 6717,
      "좋고": 6718,
      "있어요": 6719,
      "사름": 6720,
      "했을": 6721,
      "느낌이": 6722,
      "시키": 6723,
      "##했던": 6724,
      "##때는": 6725,
      "##아지": 6726,
      "다닐": 6727,
      "봐야": 6728,
      "바람": 6729,
      "해봐": 6730,
      "짜증": 6731,
      "##만히": 6732,
      "굳이": 6733,
      "많고": 6734,
      "선생님이": 6735,
      "나올": 6736,
      "##아야": 6737,
      "비행": 6738,
      "먹어야": 6739,
      "학생": 6740,
      "나오고": 6741,
      "##거리": 6742,
      "하거든": 6743,
      "크게": 6744,
      "없다": 6745,
      "##장님": 6746,
      "고양": 6747,
      "일주": 6748,
      "거잖아": 6749,
      "아무것도": 6750,
      "결국": 6751,
      "이름랑": 6752,
      "된다고": 6753,
      "고생": 6754,
      "이름이랑": 6755,
      "##가루": 6756,
      "주변": 6757,
      "해보": 6758,
      "생겼": 6759,
      "##마는": 6760,
      "죽어": 6761,
      "당연히": 6762,
      "새끼": 6763,
      "봐봐": 6764,
      "넣고": 6765,
      "암튼": 6766,
      "미국": 6767,
      "##한다고": 6768,
      "나를": 6769,
      "놀러": 6770,
      "##했지": 6771,
      "앉아": 6772,
      "이름이가": 6773,
      "진짜로": 6774,
      "알아서": 6775,
      "이러면서": 6776,
      "데가": 6777,
      "육십": 6778,
      "있나": 6779,
      "깜짝": 6780,
      "모르는": 6781,
      "다행": 6782,
      "먹지": 6783,
      "##라리": 6784,
      "불러": 6785,
      "새벽": 6786,
      "대한": 6787,
      "시어": 6788,
      "##인디": 6789,
      "없잖아": 6790,
      "##리스": 6791,
      "않애": 6792,
      "어떡": 6793,
      "아기": 6794,
      "이래": 6795,
      "아우": 6796,
      "##하는거": 6797,
      "##어가지고": 6798,
      "##운데": 6799,
      "##허고": 6800,
      "좋았": 6801,
      "인정": 6802,
      "일주일": 6803,
      "하려고": 6804,
      "관광": 6805,
      "가르": 6806,
      "점심": 6807,
      "친구들": 6808,
      "색깔": 6809,
      "스트레스": 6810,
      "##이크": 6811,
      "##었다": 6812,
      "듣고": 6813,
      "차라리": 6814,
      "궁금": 6815,
      "아저": 6816,
      "##하다가": 6817,
      "##저께": 6818,
      "얘네": 6819,
      "##소리": 6820,
      "맞어": 6821,
      "올려": 6822,
      "개월": 6823,
      "걸어": 6824,
      "그땐": 6825,
      "대단": 6826,
      "##신게": 6827,
      "##이도": 6828,
      "##든지": 6829,
      "##졌어": 6830,
      "가까": 6831,
      "자식": 6832,
      "시집": 6833,
      "웃겨": 6834,
      "놔두": 6835,
      "그런가": 6836,
      "마음이": 6837,
      "챙겨": 6838,
      "왔어": 6839,
      "관심": 6840,
      "##학생": 6841,
      "여기는": 6842,
      "금방": 6843,
      "녹음": 6844,
      "그러면은": 6845,
      "아저씨": 6846,
      "말은": 6847,
      "하기": 6848,
      "나쁘": 6849,
      "받았": 6850,
      "아휴": 6851,
      "##하거든": 6852,
      "어쩌": 6853,
      "##러워": 6854,
      "##이랜": 6855,
      "것만": 6856,
      "##나무": 6857,
      "그래가지구": 6858,
      "못하고": 6859,
      "언니는": 6860,
      "여덟": 6861,
      "없을": 6862,
      "돼지": 6863,
      "그렇고": 6864,
      "일찍": 6865,
      "##보다는": 6866,
      "맞아요": 6867,
      "부산": 6868,
      "십이": 6869,
      "기본": 6870,
      "귀찮": 6871,
      "##오고": 6872,
      "얘기해": 6873,
      "화장실": 6874,
      "##르고": 6875,
      "다니고": 6876,
      "그추룩": 6877,
      "만든": 6878,
      "들어서": 6879,
      "무서워": 6880,
      "교육": 6881,
      "팔아": 6882,
      "봤을": 6883,
      "좋은데": 6884,
      "비싼": 6885,
      "없었": 6886,
      "보이": 6887,
      "##대가": 6888,
      "생일": 6889,
      "##만한": 6890,
      "기억나": 6891,
      "연애": 6892,
      "인생": 6893,
      "그지": 6894,
      "##지만은": 6895,
      "어저께": 6896,
      "##다니까": 6897,
      "끝나고": 6898,
      "젊은": 6899,
      "가면은": 6900,
      "가만히": 6901,
      "##하다고": 6902,
      "##하긴": 6903,
      "##스트": 6904,
      "해야되": 6905,
      "이상한": 6906,
      "달에": 6907,
      "아이들이": 6908,
      "대학교": 6909,
      "##리에": 6910,
      "##먹어": 6911,
      "##기만": 6912,
      "종류": 6913,
      "적이": 6914,
      "올라가": 6915,
      "먹은": 6916,
      "자연": 6917,
      "이름은": 6918,
      "기름": 6919,
      "수술": 6920,
      "허민": 6921,
      "말라고": 6922,
      "##자마": 6923,
      "가도": 6924,
      "아냐": 6925,
      "같고": 6926,
      "##방이": 6927,
      "우리나라": 6928,
      "호끔": 6929,
      "배고": 6930,
      "그것이": 6931,
      "##력이": 6932,
      "되는거": 6933,
      "##려면": 6934,
      "##렸을": 6935,
      "아래": 6936,
      "##들어": 6937,
      "헤어": 6938,
      "싶은데": 6939,
      "예를": 6940,
      "제주도는": 6941,
      "최고": 6942,
      "맛있는": 6943,
      "귀여": 6944,
      "모르고": 6945,
      "어머니가": 6946,
      "삼촌": 6947,
      "식당": 6948,
      "##수도": 6949,
      "못하": 6950,
      "와가지고": 6951,
      "만났": 6952,
      "##으러": 6953,
      "벌써": 6954,
      "자기는": 6955,
      "제주도에": 6956,
      "##치는": 6957,
      "##자마자": 6958,
      "대화": 6959,
      "이신디": 6960,
      "##드라": 6961,
      "늦게": 6962,
      "갈아": 6963,
      "개인": 6964,
      "교회": 6965,
      "기도": 6966,
      "축구": 6967,
      "##에스": 6968,
      "니가": 6969,
      "##건디": 6970,
      "힘든": 6971,
      "생각나": 6972,
      "바뀌": 6973,
      "거라고": 6974,
      "사람들도": 6975,
      "##가락": 6976,
      "취미": 6977,
      "야이": 6978,
      "있언": 6979,
      "##이여": 6980,
      "밭에": 6981,
      "##기에": 6982,
      "모르겠는데": 6983,
      "먹으러": 6984,
      "순간": 6985,
      "경해": 6986,
      "농사": 6987,
      "##학년": 6988,
      "부분": 6989,
      "하도": 6990,
      "사람을": 6991,
      "가가지고": 6992,
      "않은": 6993,
      "나만": 6994,
      "##느냐": 6995,
      "예전에": 6996,
      "완전히": 6997,
      "사라": 6998,
      "칠십": 6999,
      "##이거든": 7000,
      "같다": 7001,
      "상태": 7002,
      "움직": 7003,
      "근디": 7004,
      "봐도": 7005,
      "그런게": 7006,
      "보다": 7007,
      "##이라는": 7008,
      "할거": 7009,
      "인스타": 7010,
      "##으니깐": 7011,
      "애들은": 7012,
      "물어보": 7013,
      "받는": 7014,
      "##하나": 7015,
      "맞춰": 7016,
      "내용": 7017,
      "##건가": 7018,
      "다니는": 7019,
      "##지지": 7020,
      "치킨": 7021,
      "번도": 7022,
      "닮은디": 7023,
      "##들한테": 7024,
      "##장을": 7025,
      "아픈": 7026,
      "자주": 7027,
      "얘는": 7028,
      "##지어": 7029,
      "큰일": 7030,
      "엄마는": 7031,
      "같아요": 7032,
      "생긴": 7033,
      "만드는": 7034,
      "불편": 7035,
      "아니냐": 7036,
      "건디": 7037,
      "##같이": 7038,
      "##시난": 7039,
      "중간에": 7040,
      "미리": 7041,
      "##주면": 7042,
      "아무리": 7043,
      "하네": 7044,
      "##였지": 7045,
      "하나씩": 7046,
      "감자": 7047,
      "##이트": 7048,
      "##쪽으로": 7049,
      "##였는데": 7050,
      "##라게": 7051,
      "쪽에": 7052,
      "##버리니까": 7053,
      "카톡": 7054,
      "것들": 7055,
      "##이라서": 7056,
      "이름한테": 7057,
      "밤에": 7058,
      "한거": 7059,
      "때마다": 7060,
      "인터": 7061,
      "어머": 7062,
      "어렵": 7063,
      "아들이": 7064,
      "허여": 7065,
      "##었잖아": 7066,
      "##무원": 7067,
      "했었어": 7068,
      "자체가": 7069,
      "말로": 7070,
      "##쪽에": 7071,
      "일부러": 7072,
      "##오는": 7073,
      "없었어": 7074,
      "##는거라": 7075,
      "아무래도": 7076,
      "가자": 7077,
      "##수다게": 7078,
      "따뜻": 7079,
      "들어갔": 7080,
      "허영": 7081,
      "##버렸": 7082,
      "##동안": 7083,
      "그러면서": 7084,
      "조심": 7085,
      "버리": 7086,
      "팔십": 7087,
      "정도로": 7088,
      "생각하면": 7089,
      "내년": 7090,
      "##었을": 7091,
      "이백": 7092,
      "청소": 7093,
      "행복": 7094,
      "##합니다": 7095,
      "요즘에": 7096,
      "시청": 7097,
      "##스가": 7098,
      "있긴": 7099,
      "##다이": 7100,
      "눈이": 7101,
      "느껴": 7102,
      "도와": 7103,
      "바꿔": 7104,
      "지가": 7105,
      "그렇게해서": 7106,
      "생각도": 7107,
      "없으면": 7108,
      "아무도": 7109,
      "며칠": 7110,
      "하지만": 7111,
      "똑같은": 7112,
      "마을": 7113,
      "있는거": 7114,
      "말하면": 7115,
      "하는게": 7116,
      "##쿠다": 7117,
      "##보난": 7118,
      "갖다": 7119,
      "심지어": 7120,
      "##고기": 7121,
      "다리": 7122,
      "조용": 7123,
      "됐어": 7124,
      "신랑": 7125,
      "겐디": 7126,
      "메밀": 7127,
      "비행기": 7128,
      "##정이": 7129,
      "강아지": 7130,
      "검사": 7131,
      "나쁜": 7132,
      "주제": 7133,
      "##언니": 7134,
      "갔다가": 7135,
      "너한테": 7136,
      "하라고": 7137,
      "했네": 7138,
      "라면": 7139,
      "스무": 7140,
      "느끼": 7141,
      "오천": 7142,
      "앞으로": 7143,
      "##봤는데": 7144,
      "잊어": 7145,
      "그다음": 7146,
      "남자친구": 7147,
      "##요일날": 7148,
      "영상": 7149,
      "하루에": 7150,
      "이만": 7151,
      "키로": 7152,
      "##ᆞᆷ": 7153,
      "그자": 7154,
      "점점": 7155,
      "배달": 7156,
      "##입니다": 7157,
      "이후": 7158,
      "##식으로": 7159,
      "##겠습니다": 7160,
      "먹언": 7161,
      "하는디": 7162,
      "신청": 7163,
      "날씨": 7164,
      "이랬": 7165,
      "엄마한테": 7166,
      "그렇구나": 7167,
      "사회": 7168,
      "##시면": 7169,
      "어렸을": 7170,
      "주말": 7171,
      "##스럽": 7172,
      "쪽으로": 7173,
      "게메": 7174,
      "##봐야": 7175,
      "아이들은": 7176,
      "##짜리": 7177,
      "받을": 7178,
      "작년": 7179,
      "찍어": 7180,
      "에스": 7181,
      "밥을": 7182,
      "그대로": 7183,
      "오름": 7184,
      "파는": 7185,
      "##었나": 7186,
      "말씀": 7187,
      "##케이": 7188,
      "##물이": 7189,
      "##하러": 7190,
      "소금": 7191,
      "싸우": 7192,
      "먹어도": 7193,
      "가격": 7194,
      "##되고": 7195,
      "겁나": 7196,
      "일어": 7197,
      "##되는": 7198,
      "않을": 7199,
      "십일": 7200,
      "유투": 7201,
      "##버린": 7202,
      "데리고": 7203,
      "매일": 7204,
      "알려": 7205,
      "오랜": 7206,
      "무엇": 7207,
      "물론": 7208,
      "라고": 7209,
      "무시거": 7210,
      "했다": 7211,
      "집안": 7212,
      "안가": 7213,
      "##ᄒᆞ": 7214,
      "시어머니": 7215,
      "게믄": 7216,
      "웃긴": 7217,
      "너랑": 7218,
      "왔는데": 7219,
      "말할": 7220,
      "뭔데": 7221,
      "그랬는데": 7222,
      "기계": 7223,
      "일도": 7224,
      "##듯이": 7225,
      "맞다": 7226,
      "##걸로": 7227,
      "##길래": 7228,
      "지내": 7229,
      "##만에": 7230,
      "처음에는": 7231,
      "티비": 7232,
      "안된": 7233,
      "일반": 7234,
      "난리": 7235,
      "특히": 7236,
      "있다가": 7237,
      "생기": 7238,
      "##고이": 7239,
      "ᄆᆞᆯ": 7240,
      "놔서": 7241,
      "오늘은": 7242,
      "좋겠다": 7243,
      "가기": 7244,
      "##르는": 7245,
      "ᄀᆞᆯ": 7246,
      "##버리면": 7247,
      "형님": 7248,
      "걸려": 7249,
      "들어간": 7250,
      "담배": 7251,
      "직장": 7252,
      "##에게": 7253,
      "할까": 7254,
      "##이로": 7255,
      "카드": 7256,
      "피부": 7257,
      "호텔": 7258,
      "해요": 7259,
      "몸이": 7260,
      "##성이": 7261,
      "##여행": 7262,
      "위험": 7263,
      "##버리고": 7264,
      "않나": 7265,
      "다이어": 7266,
      "있었거든": 7267,
      "제대": 7268,
      "중요한": 7269,
      "경험": 7270,
      "사서": 7271,
      "거에": 7272,
      "##갔다": 7273,
      "반찬": 7274,
      "되어": 7275,
      "빼고": 7276,
      "옆에서": 7277,
      "제주도에서": 7278,
      "경행": 7279,
      "않았어": 7280,
      "##치고": 7281,
      "나와서": 7282,
      "##오면": 7283,
      "여자친구": 7284,
      "손님": 7285,
      "##했다": 7286,
      "데는": 7287,
      "교수님": 7288,
      "없네": 7289,
      "어우": 7290,
      "된장": 7291,
      "##는거지": 7292,
      "저렇게": 7293,
      "쓰레": 7294,
      "##었네": 7295,
      "직접": 7296,
      "제대로": 7297,
      "##랜드": 7298,
      "다음날": 7299,
      "가는데": 7300,
      "나고": 7301,
      "##원이": 7302,
      "신고": 7303,
      "계란": 7304,
      "때까지": 7305,
      "차가": 7306,
      "무섭": 7307,
      "자고": 7308,
      "하던데": 7309,
      "##으면은": 7310,
      "옛날은": 7311,
      "이디": 7312,
      "할머니가": 7313,
      "##던가": 7314,
      "크리스": 7315,
      "지네": 7316,
      "이유가": 7317,
      "집은": 7318,
      "계획": 7319,
      "이러고": 7320,
      "물이": 7321,
      "오일": 7322,
      "했다고": 7323,
      "해줘": 7324,
      "고모": 7325,
      "그거에": 7326,
      "공무원": 7327,
      "돈도": 7328,
      "보러": 7329,
      "고양이": 7330,
      "에어": 7331,
      "잘생": 7332,
      "위해서": 7333,
      "죽을": 7334,
      "마찬": 7335,
      "##치가": 7336,
      "##했을": 7337,
      "며느": 7338,
      "웃기": 7339,
      "넘어가": 7340,
      "아니다": 7341,
      "이거를": 7342,
      "고사": 7343,
      "오지": 7344,
      "이신": 7345,
      "거예요": 7346,
      "전혀": 7347,
      "맞네": 7348,
      "까지": 7349,
      "##같은": 7350,
      "서방": 7351,
      "대신": 7352,
      "한테": 7353,
      "고라": 7354,
      "우와": 7355,
      "##시켜": 7356,
      "예전": 7357,
      "두번": 7358,
      "##신이": 7359,
      "고등": 7360,
      "깨끗": 7361,
      "않는": 7362,
      "가신디": 7363,
      "수학": 7364,
      "재밌어": 7365,
      "자격": 7366,
      "##었고": 7367,
      "##인거": 7368,
      "이사": 7369,
      "보기": 7370,
      "두개": 7371,
      "##텐데": 7372,
      "주인": 7373,
      "##나게": 7374,
      "여기가": 7375,
      "그나": 7376,
      "##던거": 7377,
      "한라산": 7378,
      "누군": 7379,
      "귀엽": 7380,
      "해외": 7381,
      "모자": 7382,
      "빠져": 7383,
      "출근": 7384,
      "하믄": 7385,
      "##든가": 7386,
      "나이가": 7387,
      "##으려고": 7388,
      "앉아서": 7389,
      "바꾸": 7390,
      "말한": 7391,
      "분위": 7392,
      "인터넷": 7393,
      "게민": 7394,
      "없다고": 7395,
      "마라": 7396,
      "나눠": 7397,
      "못하는": 7398,
      "##해요": 7399,
      "제주시": 7400,
      "그때도": 7401,
      "##만이": 7402,
      "잘하는": 7403,
      "신발": 7404,
      "##아리": 7405,
      "오백": 7406,
      "거랑": 7407,
      "가난": 7408,
      "방법": 7409,
      "##마씀": 7410,
      "다이어트": 7411,
      "보험": 7412,
      "되겠다": 7413,
      "말라": 7414,
      "소개": 7415,
      "##스로": 7416,
      "굉장": 7417,
      "빌려": 7418,
      "좋다고": 7419,
      "전부": 7420,
      "##분이": 7421,
      "응응": 7422,
      "##볼까": 7423,
      "미친": 7424,
      "아버": 7425,
      "앞에서": 7426,
      "사람한테": 7427,
      "가능": 7428,
      "담아": 7429,
      "이쁘": 7430,
      "##시믄": 7431,
      "모르겐": 7432,
      "미깡": 7433,
      "뭐랜": 7434,
      "##생활": 7435,
      "어이": 7436,
      "연습": 7437,
      "여자가": 7438,
      "연예": 7439,
      "##러운": 7440,
      "넣어": 7441,
      "##때도": 7442,
      "버려": 7443,
      "##마스": 7444,
      "##났어": 7445,
      "##주만은": 7446,
      "##어져": 7447,
      "하자": 7448,
      "생겨": 7449,
      "##적이": 7450,
      "제주어": 7451,
      "줘야": 7452,
      "##레이": 7453,
      "친정": 7454,
      "똑같이": 7455,
      "케이": 7456,
      "관리": 7457,
      "##허게": 7458,
      "열두": 7459,
      "했나": 7460,
      "##사는": 7461,
      "받은": 7462,
      "굉장히": 7463,
      "알안": 7464,
      "겅해도": 7465,
      "##불고": 7466,
      "차이": 7467,
      "유명한": 7468,
      "말아": 7469,
      "##상이": 7470,
      "많았": 7471,
      "##할거": 7472,
      "이야기": 7473,
      "아줌": 7474,
      "했었는데": 7475,
      "##더라고요": 7476,
      "설명": 7477,
      "추워": 7478,
      "구경": 7479,
      "수능": 7480,
      "추천": 7481,
      "당시": 7482,
      "워낙": 7483,
      "주로": 7484,
      "할려고": 7485,
      "##네요": 7486,
      "나오면": 7487,
      "예쁜": 7488,
      "해보고": 7489,
      "어때": 7490,
      "오라": 7491,
      "지역": 7492,
      "해봤": 7493,
      "생각하는": 7494,
      "가을": 7495,
      "많지": 7496,
      "주면": 7497,
      "가장": 7498,
      "그림": 7499,
      "괜히": 7500,
      "수영": 7501,
      "##에만": 7502,
      "잔치": 7503,
      "##버렸어": 7504,
      "그때부터": 7505,
      "경허난": 7506,
      "##수게": 7507,
      "어울": 7508,
      "피곤": 7509,
      "답답": 7510,
      "크리스마스": 7511,
      "눈치": 7512,
      "조금씩": 7513,
      "##식이": 7514,
      "예뻐": 7515,
      "그것만": 7516,
      "공부를": 7517,
      "사귀": 7518,
      "거면": 7519,
      "##없이": 7520,
      "아파트": 7521,
      "불쌍": 7522,
      "가방": 7523,
      "삼춘": 7524,
      "음악": 7525,
      "##먹는": 7526,
      "사촌": 7527,
      "##했거든": 7528,
      "같긴": 7529,
      "경찰": 7530,
      "남아": 7531,
      "##동생": 7532,
      "학교에서": 7533,
      "아버지가": 7534,
      "아닐": 7535,
      "##부런": 7536,
      "유투브": 7537,
      "##비가": 7538,
      "끓여": 7539,
      "십오": 7540,
      "친해": 7541,
      "엄마도": 7542,
      "조금만": 7543,
      "잠깐만": 7544,
      "월급": 7545,
      "바당": 7546,
      "겨울에": 7547,
      "분명": 7548,
      "나름": 7549,
      "##로는": 7550,
      "##왔어": 7551,
      "들어가서": 7552,
      "##우스": 7553,
      "간호": 7554,
      "좋게": 7555,
      "하르": 7556,
      "진짜이": 7557,
      "감사": 7558,
      "나갔": 7559,
      "만날": 7560,
      "오케이": 7561,
      "생각보다": 7562,
      "이름아": 7563,
      "양념": 7564,
      "취업": 7565,
      "##있고": 7566,
      "만들어서": 7567,
      "편의": 7568,
      "이만큼": 7569,
      "저녁에": 7570,
      "이름네": 7571,
      "마찬가지": 7572,
      "이불": 7573,
      "모르겠다": 7574,
      "예약": 7575,
      "아줌마": 7576,
      "번씩": 7577,
      "마리": 7578,
      "먹어서": 7579,
      "건물": 7580,
      "올리": 7581,
      "그리": 7582,
      "키워": 7583,
      "보니깐": 7584,
      "물에": 7585,
      "딱히": 7586,
      "언니네": 7587,
      "##드라고": 7588,
      "훨씬": 7589,
      "그나마": 7590,
      "부모님": 7591,
      "서른": 7592,
      "거네": 7593,
      "사업": 7594,
      "##퓨터": 7595,
      "##가가": 7596,
      "ᄆᆞ": 7597,
      "입장": 7598,
      "##이를": 7599,
      "먹었는데": 7600,
      "##우고": 7601,
      "번째": 7602,
      "말야": 7603,
      "데서": 7604,
      "컴퓨터": 7605,
      "##되면": 7606,
      "마늘": 7607,
      "있었던": 7608,
      "친구랑": 7609,
      "자격증": 7610,
      "가져가": 7611,
      "가이가": 7612,
      "구십": 7613,
      "##허여": 7614,
      "결혼식": 7615,
      "만난": 7616,
      "아니잖아": 7617,
      "만들고": 7618,
      "나갈": 7619,
      "##었다고": 7620,
      "방송": 7621,
      "사주": 7622,
      "들었어": 7623,
      "전기": 7624,
      "원래는": 7625,
      "들어가면": 7626,
      "봐서": 7627,
      "속에": 7628,
      "##집이": 7629,
      "들어가는": 7630,
      "나보고": 7631,
      "삼백": 7632,
      "남자가": 7633,
      "##하려고": 7634,
      "병원에": 7635,
      "정리": 7636,
      "택시": 7637,
      "일단은": 7638,
      "##달라고": 7639,
      "##겠지만": 7640,
      "문제가": 7641,
      "잡고": 7642,
      "작년에": 7643,
      "여름에": 7644,
      "대로": 7645,
      "보이는": 7646,
      "에서": 7647,
      "아닙": 7648,
      "편의점": 7649,
      "##다리": 7650,
      "중앙": 7651,
      "##시냐": 7652,
      "있어가지고": 7653,
      "골아": 7654,
      "거긴": 7655,
      "건지": 7656,
      "공항": 7657,
      "집을": 7658,
      "나면": 7659,
      "안좋": 7660,
      "##감이": 7661,
      "물어봐": 7662,
      "##마트": 7663,
      "마트": 7664,
      "##없어": 7665,
      "##하면은": 7666,
      "분이": 7667,
      "맥주": 7668,
      "인제": 7669,
      "빨간": 7670,
      "괜찮은": 7671,
      "니네": 7672,
      "듣는": 7673,
      "문화": 7674,
      "하나만": 7675,
      "저번": 7676,
      "했어요": 7677,
      "대충": 7678,
      "손으로": 7679,
      "매우": 7680,
      "해가": 7681,
      "##게요": 7682,
      "##ᄊᆞᆯ": 7683,
      "확인": 7684,
      "##맞아": 7685,
      "##이영": 7686,
      "언니도": 7687,
      "그랬어": 7688,
      "배워": 7689,
      "들어갈": 7690,
      "충격": 7691,
      "있대": 7692,
      "추억": 7693,
      "##웠어": 7694,
      "같지": 7695,
      "선배": 7696,
      "지원": 7697,
      "머리가": 7698,
      "오니까": 7699,
      "으응": 7700,
      "이녁": 7701,
      "##명이": 7702,
      "어신": 7703,
      "끝나면": 7704,
      "모두": 7705,
      "한번도": 7706,
      "##말로": 7707,
      "걔도": 7708,
      "##보단": 7709,
      "그난": 7710,
      "요리": 7711,
      "##지니까": 7712,
      "##하멍": 7713,
      "##머리": 7714,
      "요새는": 7715,
      "최근에": 7716,
      "떡볶": 7717,
      "생각하고": 7718,
      "만큼": 7719,
      "##한게": 7720,
      "이틀": 7721,
      "돌려": 7722,
      "벌어": 7723,
      "인사": 7724,
      "##으난": 7725,
      "##장도": 7726,
      "정확": 7727,
      "거짓": 7728,
      "사야": 7729,
      "나중": 7730,
      "도시": 7731,
      "가이네": 7732,
      "들어와": 7733,
      "##나고": 7734,
      "엄마랑": 7735,
      "나왔어": 7736,
      "갔지": 7737,
      "있잖아요": 7738,
      "헬스": 7739,
      "고치": 7740,
      "##원도": 7741,
      "합니까": 7742,
      "검은": 7743,
      "나보다": 7744,
      "처음엔": 7745,
      "노력": 7746,
      "세상에": 7747,
      "마당": 7748,
      "쓰레기": 7749,
      "의미": 7750,
      "해부난": 7751,
      "할수": 7752,
      "안하": 7753,
      "##보는": 7754,
      "##말이": 7755,
      "나머": 7756,
      "##레비": 7757,
      "돼요": 7758,
      "것들이": 7759,
      "허믄": 7760,
      "기다려": 7761,
      "써야": 7762,
      "많은데": 7763,
      "이름이는": 7764,
      "초반": 7765,
      "쪼끔": 7766,
      "가보고": 7767,
      "장사": 7768,
      "##자는": 7769,
      "고맙": 7770,
      "##해져": 7771,
      "선택": 7772,
      "##장은": 7773,
      "##겠어요": 7774,
      "해라": 7775,
      "모르지": 7776,
      "간다고": 7777,
      "살이": 7778,
      "유럽": 7779,
      "모아": 7780,
      "주문": 7781,
      "너희": 7782,
      "몸에": 7783,
      "해녀": 7784,
      "예예": 7785,
      "##오름": 7786,
      "직업": 7787,
      "##으라고": 7788,
      "단계": 7789,
      "##버려서": 7790,
      "귀여워": 7791,
      "약속": 7792,
      "ᄉᆞ": 7793,
      "삼천": 7794,
      "생각은": 7795,
      "성님": 7796,
      "꺼내": 7797,
      "돼서": 7798,
      "모임": 7799,
      "##라면": 7800,
      "동물": 7801,
      "마시": 7802,
      "##심이": 7803,
      "시간에": 7804,
      "##까봐": 7805,
      "##지로": 7806,
      "##나봐": 7807,
      "방에": 7808,
      "처럼": 7809,
      "될거": 7810,
      "해줄": 7811,
      "##던디": 7812,
      "입어": 7813,
      "맛인": 7814,
      "##실에": 7815,
      "애들도": 7816,
      "나쁘지": 7817,
      "명절": 7818,
      "토익": 7819,
      "연예인": 7820,
      "지나가": 7821,
      "들었": 7822,
      "##두고": 7823,
      "##간에": 7824,
      "들은": 7825,
      "인가": 7826,
      "##치기": 7827,
      "도망": 7828,
      "안에서": 7829,
      "똑똑": 7830,
      "합니다": 7831,
      "저런": 7832,
      "보지": 7833,
      "친한": 7834,
      "돌아다니": 7835,
      "은근": 7836,
      "저도": 7837,
      "바쁘": 7838,
      "##신고": 7839,
      "기지": 7840,
      "먹으니까": 7841,
      "간다": 7842,
      "놀고": 7843,
      "그러지": 7844,
      "것처럼": 7845,
      "##저것": 7846,
      "##집에": 7847,
      "없어요": 7848,
      "누게": 7849,
      "딸이": 7850,
      "붙어": 7851,
      "해그넹": 7852,
      "##학과": 7853,
      "잘라": 7854,
      "맛좋": 7855,
      "조그": 7856,
      "찍고": 7857,
      "된대": 7858,
      "##하믄": 7859,
      "##하더라": 7860,
      "##도가": 7861,
      "끊어": 7862,
      "일은": 7863,
      "##쳐서": 7864,
      "말하고": 7865,
      "##시키": 7866,
      "비슷한": 7867,
      "그래야": 7868,
      "##이었어": 7869,
      "짜증나": 7870,
      "애기들": 7871,
      "기숙": 7872,
      "##원에": 7873,
      "집도": 7874,
      "면접": 7875,
      "인간": 7876,
      "직원": 7877,
      "##했네": 7878,
      "##을거": 7879,
      "어려워": 7880,
      "일년": 7881,
      "이것저것": 7882,
      "데도": 7883,
      "학기": 7884,
      "##로도": 7885,
      "날은": 7886,
      "들려": 7887,
      "##이래": 7888,
      "구워": 7889,
      "해주고": 7890,
      "무서운": 7891,
      "멋있": 7892,
      "확진": 7893,
      "요거": 7894,
      "주변에": 7895,
      "식구": 7896,
      "막상": 7897,
      "##자를": 7898,
      "##대에": 7899,
      "생선": 7900,
      "의사": 7901,
      "멀리": 7902,
      "했으면": 7903,
      "걸린": 7904,
      "##했다고": 7905,
      "하나님": 7906,
      "오빠는": 7907,
      "##장님이": 7908,
      "편안": 7909,
      "허리": 7910,
      "이때": 7911,
      "있어도": 7912,
      "풀어": 7913,
      "보냈": 7914,
      "아니라고": 7915,
      "정도는": 7916,
      "둘째": 7917,
      "##아가": 7918,
      "##허난": 7919,
      "많아서": 7920,
      "##였거든": 7921,
      "시간을": 7922,
      "가라": 7923,
      "하니": 7924,
      "되네": 7925,
      "##줬어": 7926,
      "근처": 7927,
      "포기": 7928,
      "쉽게": 7929,
      "지난": 7930,
      "##국수": 7931,
      "남자애": 7932,
      "하는거야": 7933,
      "아빠는": 7934,
      "냉장": 7935,
      "한참": 7936,
      "고추": 7937,
      "싶지": 7938,
      "##대는": 7939,
      "이러니까": 7940,
      "계산": 7941,
      "##사님": 7942,
      "그만큼": 7943,
      "번은": 7944,
      "보믄": 7945,
      "세계": 7946,
      "##그램": 7947,
      "부터": 7948,
      "지하": 7949,
      "놀아": 7950,
      "마음에": 7951,
      "엇어": 7952,
      "##프로": 7953,
      "걸리": 7954,
      "연결": 7955,
      "좋아하고": 7956,
      "싶어서": 7957,
      "목욕": 7958,
      "수는": 7959,
      "죽은": 7960,
      "모습": 7961,
      "밥도": 7962,
      "좋은거": 7963,
      "치고": 7964,
      "유튜": 7965,
      "거짓말": 7966,
      "년도": 7967,
      "바닷": 7968,
      "달라고": 7969,
      "##수록": 7970,
      "소문": 7971,
      "##겠는데": 7972,
      "##말고": 7973,
      "했고": 7974,
      "가보": 7975,
      "행으네": 7976,
      "##제로": 7977,
      "##한테도": 7978,
      "역시": 7979,
      "나가서": 7980,
      "오만": 7981,
      "관련": 7982,
      "사장님": 7983,
      "이해가": 7984,
      "한대": 7985,
      "있었지": 7986,
      "고사리": 7987,
      "봤지": 7988,
      "후회": 7989,
      "상대": 7990,
      "##헌디": 7991,
      "어찌": 7992,
      "자신": 7993,
      "만나서": 7994,
      "넣어서": 7995,
      "그거랑": 7996,
      "먹는데": 7997,
      "열한": 7998,
      "표준": 7999,
      "##지에": 8000,
      "##방에": 8001,
      "##ᄀᆞ": 8002,
      "좋아하": 8003,
      "물을": 8004,
      "##당히": 8005,
      "이제야": 8006,
      "##르면": 8007,
      "호꼼": 8008,
      "##건지": 8009,
      "그래요": 8010,
      "도로": 8011,
      "##이브": 8012,
      "뭐하": 8013,
      "있구나": 8014,
      "해그네": 8015,
      "돈은": 8016,
      "##이긴": 8017,
      "##을때": 8018,
      "끝났": 8019,
      "##다게": 8020,
      "##거든요": 8021,
      "끝난": 8022,
      "나아": 8023,
      "와이": 8024,
      "내고": 8025,
      "뛰어": 8026,
      "##잖아예": 8027,
      "##네가": 8028,
      "##정을": 8029,
      "부담": 8030,
      "##까진": 8031,
      "끼고": 8032,
      "##부니까": 8033,
      "드는": 8034,
      "막내": 8035,
      "맞추": 8036,
      "##부가": 8037,
      "##장에서": 8038,
      "여기도": 8039,
      "검색": 8040,
      "하얀": 8041,
      "놓는": 8042,
      "스토": 8043,
      "여자애": 8044,
      "있었고": 8045,
      "##하라고": 8046,
      "아니에요": 8047,
      "아니면은": 8048,
      "치즈": 8049,
      "군데": 8050,
      "맞수다": 8051,
      "##갔어": 8052,
      "고마": 8053,
      "##였나": 8054,
      "쇼핑": 8055,
      "##이터": 8056,
      "그때가": 8057,
      "체육": 8058,
      "통화": 8059,
      "어떡해": 8060,
      "근육": 8061,
      "나의": 8062,
      "이어": 8063,
      "##해신디": 8064,
      "##스를": 8065,
      "떨어져": 8066,
      "가야지": 8067,
      "냉장고": 8068,
      "넷플": 8069,
      "배추": 8070,
      "소리가": 8071,
      "자기도": 8072,
      "나간": 8073,
      "##일이": 8074,
      "좋긴": 8075,
      "##이서": 8076,
      "가루": 8077,
      "자랑": 8078,
      "싶고": 8079,
      "##수를": 8080,
      "얼굴이": 8081,
      "십만": 8082,
      "특별": 8083,
      "##디가": 8084,
      "전복": 8085,
      "물건": 8086,
      "##허는": 8087,
      "만나고": 8088,
      "어려운": 8089,
      "이따": 8090,
      "##면이": 8091,
      "우리한테": 8092,
      "붙여": 8093,
      "우유": 8094,
      "##기름": 8095,
      "게도": 8096,
      "놀랐": 8097,
      "당근": 8098,
      "알았는데": 8099,
      "바빠": 8100,
      "##관이": 8101,
      "##나는": 8102,
      "받아서": 8103,
      "빙떡": 8104,
      "##라인": 8105,
      "##이난": 8106,
      "가운데": 8107,
      "##있는데": 8108,
      "모를": 8109,
      "신기해": 8110,
      "새로운": 8111,
      "주차": 8112,
      "그렇다고": 8113,
      "안되고": 8114,
      "##식을": 8115,
      "##새기": 8116,
      "있던": 8117,
      "형제": 8118,
      "사다": 8119,
      "다니면서": 8120,
      "개가": 8121,
      "틀려": 8122,
      "성격이": 8123,
      "##우니까": 8124,
      "멸치": 8125,
      "호박": 8126,
      "것은": 8127,
      "##노난": 8128,
      "검질": 8129,
      "미역": 8130,
      "안먹": 8131,
      "##리아": 8132,
      "아이는": 8133,
      "집중": 8134,
      "##았지": 8135,
      "놓은": 8136,
      "아부": 8137,
      "자동": 8138,
      "그릇": 8139,
      "남은": 8140,
      "##도로": 8141,
      "요즘에는": 8142,
      "##점이": 8143,
      "되거든": 8144,
      "안보": 8145,
      "한림": 8146,
      "시절": 8147,
      "##도이": 8148,
      "노는": 8149,
      "가시": 8150,
      "봐신디": 8151,
      "놓으면": 8152,
      "많으니까": 8153,
      "년에": 8154,
      "새벽에": 8155,
      "어딘": 8156,
      "틀어": 8157,
      "친구들이": 8158,
      "내년에": 8159,
      "아닙니까": 8160,
      "거리": 8161,
      "##우면": 8162,
      "남의": 8163,
      "됐는데": 8164,
      "빨래": 8165,
      "같은거": 8166,
      "눈물": 8167,
      "모른": 8168,
      "##나신디": 8169,
      "쳐다": 8170,
      "어느정도": 8171,
      "몰랐어": 8172,
      "가졍": 8173,
      "누워": 8174,
      "##었어요": 8175,
      "날이": 8176,
      "낫지": 8177,
      "버리고": 8178,
      "사건": 8179,
      "합격": 8180,
      "감저": 8181,
      "돈으로": 8182,
      "있게": 8183,
      "사이에": 8184,
      "##러스": 8185,
      "가르쳐": 8186,
      "시원": 8187,
      "오라고": 8188,
      "하르방": 8189,
      "당신": 8190,
      "술을": 8191,
      "얘기하는": 8192,
      "언니랑": 8193,
      "뭐해": 8194,
      "##스럽게": 8195,
      "사무": 8196,
      "정도면": 8197,
      "구멍": 8198,
      "바지": 8199,
      "택배": 8200,
      "##부분": 8201,
      "가봤": 8202,
      "나가는": 8203,
      "그분": 8204,
      "##이란": 8205,
      "살면서": 8206,
      "평생": 8207,
      "겅허난": 8208,
      "봤거든": 8209,
      "자유": 8210,
      "##없는": 8211,
      "시끄": 8212,
      "알겠어": 8213,
      "본인": 8214,
      "조카": 8215,
      "기숙사": 8216,
      "##할때": 8217,
      "##로만": 8218,
      "가려고": 8219,
      "시까지": 8220,
      "옷을": 8221,
      "##소에": 8222,
      "해준": 8223,
      "나완": 8224,
      "추석": 8225,
      "하당": 8226,
      "하하": 8227,
      "뒤집": 8228,
      "많잖아": 8229,
      "맛집": 8230,
      "맞고": 8231,
      "있을까": 8232,
      "가이는": 8233,
      "##않아": 8234,
      "##우꽈": 8235,
      "애들이랑": 8236,
      "같기도": 8237,
      "이런게": 8238,
      "두드": 8239,
      "쓰면": 8240,
      "##아가지고": 8241,
      "부자": 8242,
      "##달에": 8243,
      "##자리": 8244,
      "그러다가": 8245,
      "##부터는": 8246,
      "방학": 8247,
      "##때문에": 8248,
      "들어온": 8249,
      "하겠다": 8250,
      "말했어": 8251,
      "보는데": 8252,
      "같아서": 8253,
      "나는데": 8254,
      "했었거든": 8255,
      "지도": 8256,
      "##을걸": 8257,
      "며느리": 8258,
      "이쪽": 8259,
      "얘기하고": 8260,
      "처음부터": 8261,
      "##드가": 8262,
      "##야되": 8263,
      "웹툰": 8264,
      "이시난": 8265,
      "유행": 8266,
      "제발": 8267,
      "##둥이": 8268,
      "제주도가": 8269,
      "부엌": 8270,
      "이럴": 8271,
      "전문": 8272,
      "##바로": 8273,
      "서울에": 8274,
      "거다": 8275,
      "소주": 8276,
      "어린이": 8277,
      "고무": 8278,
      "동생이": 8279,
      "밖에서": 8280,
      "##스터": 8281,
      "뭐냐면": 8282,
      "무릎": 8283,
      "국물": 8284,
      "쉬는": 8285,
      "눈에": 8286,
      "바퀴": 8287,
      "한시간": 8288,
      "열어": 8289,
      "보라": 8290,
      "우선": 8291,
      "좋았어": 8292,
      "##트가": 8293,
      "매운": 8294,
      "표현": 8295,
      "사과": 8296,
      "얘기하": 8297,
      "##들만": 8298,
      "과일": 8299,
      "부지": 8300,
      "각시": 8301,
      "삼성": 8302,
      "저희": 8303,
      "활동": 8304,
      "아니아니": 8305,
      "해영": 8306,
      "광고": 8307,
      "몰라도": 8308,
      "싫어해": 8309,
      "안녕": 8310,
      "##어를": 8311,
      "바닥": 8312,
      "위로": 8313,
      "싫은": 8314,
      "이름을": 8315,
      "라는": 8316,
      "반대": 8317,
      "먹엉": 8318,
      "##신지": 8319,
      "일하는": 8320,
      "못할": 8321,
      "##이에": 8322,
      "이제까지": 8323,
      "관광객": 8324,
      "일요일": 8325,
      "읽어": 8326,
      "하늘": 8327,
      "치료": 8328,
      "##구요": 8329,
      "##이름": 8330,
      "뉴스": 8331,
      "##간이": 8332,
      "되는디": 8333,
      "아님": 8334,
      "##초에": 8335,
      "미쳤": 8336,
      "않으": 8337,
      "한마": 8338,
      "다닌": 8339,
      "동그": 8340,
      "##해야지": 8341,
      "애매": 8342,
      "퇴근": 8343,
      "##줄게": 8344,
      "##시오": 8345,
      "심해": 8346,
      "여유": 8347,
      "##이냐": 8348,
      "끝까지": 8349,
      "불안": 8350,
      "거거든": 8351,
      "기회": 8352,
      "가슴": 8353,
      "소름": 8354,
      "잇어": 8355,
      "토요일": 8356,
      "좋아서": 8357,
      "운동을": 8358,
      "다이": 8359,
      "달려": 8360,
      "기대": 8361,
      "기분이": 8362,
      "자취": 8363,
      "기준": 8364,
      "만화": 8365,
      "후에": 8366,
      "괜찮은데": 8367,
      "##은이": 8368,
      "유튜브": 8369,
      "노트": 8370,
      "환경": 8371,
      "##았다": 8372,
      "##카부": 8373,
      "안경": 8374,
      "과제": 8375,
      "##우는": 8376,
      "살아야": 8377,
      "심각": 8378,
      "서울에서": 8379,
      "남편이": 8380,
      "때만": 8381,
      "나오지": 8382,
      "않으면": 8383,
      "딱딱": 8384,
      "연기": 8385,
      "##생이": 8386,
      "있댄": 8387,
      "모여": 8388,
      "여기에": 8389,
      "골프": 8390,
      "있지만": 8391,
      "목표": 8392,
      "##했잖아": 8393,
      "##주지": 8394,
      "있으": 8395,
      "할꺼": 8396,
      "##자도": 8397,
      "그러는": 8398,
      "가믄": 8399,
      "부족": 8400,
      "뭐니": 8401,
      "어깨": 8402,
      "하냐": 8403,
      "있더라고": 8404,
      "근무": 8405,
      "해주는": 8406,
      "##하세요": 8407,
      "##들끼리": 8408,
      "지금까지": 8409,
      "작아": 8410,
      "친척": 8411,
      "먹었지": 8412,
      "뽑아": 8413,
      "나가고": 8414,
      "내려가": 8415,
      "어디가": 8416,
      "불렀": 8417,
      "현실": 8418,
      "일로": 8419,
      "##같아": 8420,
      "다음주": 8421,
      "이름언니": 8422,
      "아깝": 8423,
      "취소": 8424,
      "몇번": 8425,
      "될지": 8426,
      "촌에": 8427,
      "몰란": 8428,
      "##오십": 8429,
      "왜냐면은": 8430,
      "ᄀᆞᆯ아": 8431,
      "떡볶이": 8432,
      "하나는": 8433,
      "거래": 8434,
      "아니니까": 8435,
      "모르니까": 8436,
      "높은": 8437,
      "대답": 8438,
      "말만": 8439,
      "용돈": 8440,
      "공기": 8441,
      "샀어": 8442,
      "말하지": 8443,
      "어신디": 8444,
      "돼지고": 8445,
      "근데이": 8446,
      "없어가지고": 8447,
      "영양": 8448,
      "일주일에": 8449,
      "##주기": 8450,
      "들어가고": 8451,
      "여긴": 8452,
      "무신거": 8453,
      "유치": 8454,
      "##나면": 8455,
      "올레": 8456,
      "족은": 8457,
      "쓰지": 8458,
      "신기하다": 8459,
      "보일": 8460,
      "강의": 8461,
      "거냐": 8462,
      "있더라": 8463,
      "국민": 8464,
      "기구나": 8465,
      "까먹": 8466,
      "전에는": 8467,
      "배가": 8468,
      "좋겠어": 8469,
      "죽는": 8470,
      "간단": 8471,
      "팔고": 8472,
      "고르": 8473,
      "심심": 8474,
      "전체": 8475,
      "시켰": 8476,
      "노형": 8477,
      "아쉬": 8478,
      "갈치": 8479,
      "도움": 8480,
      "##질이": 8481,
      "번호": 8482,
      "##겠냐": 8483,
      "##주세요": 8484,
      "포장": 8485,
      "아니꽈": 8486,
      "가정": 8487,
      "차를": 8488,
      "헤영": 8489,
      "할때": 8490,
      "##진거": 8491,
      "허지": 8492,
      "사용": 8493,
      "##사도": 8494,
      "잘하고": 8495,
      "##이구나": 8496,
      "댕기": 8497,
      "해줬": 8498,
      "들면": 8499,
      "관심이": 8500,
      "그렇긴": 8501,
      "경우는": 8502,
      "바이": 8503,
      "오빠랑": 8504,
      "##은에": 8505,
      "뭐하고": 8506,
      "싸게": 8507,
      "대가": 8508,
      "잃어": 8509,
      "주식": 8510,
      "해여": 8511,
      "한디": 8512,
      "##병원": 8513,
      "거구나": 8514,
      "##월에": 8515,
      "이러는": 8516,
      "이번엔": 8517,
      "오랜만에": 8518,
      "시즌": 8519,
      "허곡": 8520,
      "##제주": 8521,
      "##리로": 8522,
      "##내고": 8523,
      "그믄": 8524,
      "##이십": 8525,
      "주지": 8526,
      "나니까": 8527,
      "따라서": 8528,
      "요양": 8529,
      "질문": 8530,
      "추가": 8531,
      "되면은": 8532,
      "죄송": 8533,
      "얘기가": 8534,
      "##더라도": 8535,
      "아이들도": 8536,
      "오늘도": 8537,
      "어멍이": 8538,
      "##하는게": 8539,
      "전날": 8540,
      "거름": 8541,
      "결혼을": 8542,
      "냉동": 8543,
      "##데기": 8544,
      "말해서": 8545,
      "눌러": 8546,
      "뭐였지": 8547,
      "바깥": 8548,
      "지어": 8549,
      "모르게": 8550,
      "괜춘": 8551,
      "뭘로": 8552,
      "##천원": 8553,
      "땜에": 8554,
      "이후로": 8555,
      "미용": 8556,
      "이라고": 8557,
      "##진다": 8558,
      "나오니까": 8559,
      "키우는": 8560,
      "배고파": 8561,
      "있다는": 8562,
      "있냐": 8563,
      "##으로는": 8564,
      "속상": 8565,
      "아고": 8566,
      "가면서": 8567,
      "들어왔": 8568,
      "적어": 8569,
      "할인": 8570,
      "책임": 8571,
      "##도록": 8572,
      "##과가": 8573,
      "만나는": 8574,
      "낚시": 8575,
      "같다고": 8576,
      "했다가": 8577,
      "당장": 8578,
      "뿌려": 8579,
      "했대": 8580,
      "행동": 8581,
      "경해도": 8582,
      "주일": 8583,
      "기술": 8584,
      "##지기": 8585,
      "##싶어": 8586,
      "맞아맞아": 8587,
      "썰어": 8588,
      "뒤로": 8589,
      "삼만": 8590,
      "아라": 8591,
      "싶다고": 8592,
      "만나면": 8593,
      "하나가": 8594,
      "크고": 8595,
      "##져가지고": 8596,
      "사다가": 8597,
      "스스로": 8598,
      "안들": 8599,
      "필요한": 8600,
      "상황이": 8601,
      "좋아요": 8602,
      "보낸": 8603,
      "없언": 8604,
      "지켜": 8605,
      "문자": 8606,
      "##네는": 8607,
      "걸렸": 8608,
      "김밥": 8609,
      "보게": 8610,
      "태어": 8611,
      "코로나가": 8612,
      "냄새가": 8613,
      "것을": 8614,
      "와야": 8615,
      "##대체": 8616,
      "##거는": 8617,
      "안되는": 8618,
      "어쩌고": 8619,
      "깔끔": 8620,
      "하러": 8621,
      "적은": 8622,
      "친구들이랑": 8623,
      "바다에": 8624,
      "산에": 8625,
      "동네에": 8626,
      "때려": 8627,
      "자세": 8628,
      "##쯤에": 8629,
      "맛있게": 8630,
      "얻어": 8631,
      "##으민": 8632,
      "거나": 8633,
      "##시아": 8634,
      "동창": 8635,
      "##으멍": 8636,
      "##하니깐": 8637,
      "아들은": 8638,
      "케이크": 8639,
      "간장": 8640,
      "때나": 8641,
      "쉬운": 8642,
      "오후": 8643,
      "##사주": 8644,
      "필요가": 8645,
      "맞은": 8646,
      "피해": 8647,
      "들으면": 8648,
      "타는": 8649,
      "느꼈": 8650,
      "먹게": 8651,
      "도대체": 8652,
      "큰아": 8653,
      "전공": 8654,
      "좁쌀": 8655,
      "때문": 8656,
      "하는지": 8657,
      "상관없": 8658,
      "화가": 8659,
      "##향이": 8660,
      "이혼": 8661,
      "버렸": 8662,
      "##이스": 8663,
      "##난다": 8664,
      "##화가": 8665,
      "왔다갔다": 8666,
      "관계": 8667,
      "재민": 8668,
      "야이가": 8669,
      "대부분": 8670,
      "##하니": 8671,
      "나왔는데": 8672,
      "된댄": 8673,
      "안했": 8674,
      "백만": 8675,
      "했었지": 8676,
      "##할까": 8677,
      "아파서": 8678,
      "##메기": 8679,
      "가잖아": 8680,
      "걔랑": 8681,
      "##봐서": 8682,
      "언니한테": 8683,
      "개를": 8684,
      "너네는": 8685,
      "각자": 8686,
      "##나요": 8687,
      "##디오": 8688,
      "이름이도": 8689,
      "들을": 8690,
      "넷플릭": 8691,
      "귀신": 8692,
      "입는": 8693,
      "너네가": 8694,
      "정해": 8695,
      "학교에": 8696,
      "남았": 8697,
      "편하게": 8698,
      "했지만": 8699,
      "아이폰": 8700,
      "같으면": 8701,
      "힘이": 8702,
      "들언": 8703,
      "보다가": 8704,
      "타서": 8705,
      "안해도": 8706,
      "친구도": 8707,
      "훈련": 8708,
      "##시기": 8709,
      "개웃": 8710,
      "허는디": 8711,
      "먹기": 8712,
      "친구는": 8713,
      "않아요": 8714,
      "간에": 8715,
      "세워": 8716,
      "이빨": 8717,
      "하시": 8718,
      "배고프": 8719,
      "숙소": 8720,
      "이실": 8721,
      "나가면": 8722,
      "백신": 8723,
      "차려": 8724,
      "해난": 8725,
      "역사": 8726,
      "치매": 8727,
      "##군요": 8728,
      "시내": 8729,
      "못가": 8730,
      "할아버지가": 8731,
      "새우": 8732,
      "한두": 8733,
      "나오는데": 8734,
      "이름에": 8735,
      "모르크라": 8736,
      "##겼어": 8737,
      "##까지만": 8738,
      "화자": 8739,
      "##메라": 8740,
      "말해봐": 8741,
      "보내고": 8742,
      "예쁘게": 8743,
      "발라": 8744,
      "##리니까": 8745,
      "해줘야": 8746,
      "##에프": 8747,
      "버리니까": 8748,
      "본인이": 8749,
      "사람들한테": 8750,
      "것보다": 8751,
      "받았어": 8752,
      "##으로도": 8753,
      "거기에서": 8754,
      "갔거든": 8755,
      "몰라서": 8756,
      "일어나서": 8757,
      "우울": 8758,
      "##만하면": 8759,
      "못한": 8760,
      "사니까": 8761,
      "말이지": 8762,
      "이추룩": 8763,
      "가민": 8764,
      "##마시": 8765,
      "잡아서": 8766,
      "말인지": 8767,
      "책을": 8768,
      "충분": 8769,
      "##인게": 8770,
      "##상도": 8771,
      "##서는": 8772,
      "##던지": 8773,
      "어머니는": 8774,
      "애초에": 8775,
      "욕심": 8776,
      "먹으려고": 8777,
      "됐지": 8778,
      "한번씩": 8779,
      "하겠지": 8780,
      "당시에": 8781,
      "테레비": 8782,
      "피자": 8783,
      "당황": 8784,
      "없는거": 8785,
      "마이": 8786,
      "베트": 8787,
      "마셔": 8788,
      "물질": 8789,
      "걔네가": 8790,
      "재미있게": 8791,
      "내려오": 8792,
      "헤근에": 8793,
      "##나물": 8794,
      "걔네는": 8795,
      "경제": 8796,
      "요가": 8797,
      "부지런": 8798,
      "##아버": 8799,
      "교수님이": 8800,
      "사기": 8801,
      "##했어요": 8802,
      "마지막에": 8803,
      "##구만": 8804,
      "##놔서": 8805,
      "프로그램": 8806,
      "메뉴": 8807,
      "잇고": 8808,
      "하나에": 8809,
      "자전": 8810,
      "아빠랑": 8811,
      "낳고": 8812,
      "말하니까": 8813,
      "목소리": 8814,
      "받으면": 8815,
      "올리고": 8816,
      "시간도": 8817,
      "아빠한테": 8818,
      "길이": 8819,
      "##한디": 8820,
      "어르": 8821,
      "했댄": 8822,
      "##에이": 8823,
      "##겠구나": 8824,
      "나지": 8825,
      "올라오": 8826,
      "사모": 8827,
      "##주가": 8828,
      "비대": 8829,
      "시누": 8830,
      "가다가": 8831,
      "사람이랑": 8832,
      "##스도": 8833,
      "##스크림": 8834,
      "애기가": 8835,
      "생각해보면": 8836,
      "염색": 8837,
      "계약": 8838,
      "어색": 8839,
      "이제도": 8840,
      "번에": 8841,
      "좋아하는데": 8842,
      "햇빛": 8843,
      "##버거": 8844,
      "어시": 8845,
      "잡는": 8846,
      "차이가": 8847,
      "이러면": 8848,
      "##그내": 8849,
      "마음을": 8850,
      "베트남": 8851,
      "치마": 8852,
      "##부는": 8853,
      "이걸로": 8854,
      "거믄": 8855,
      "했으니까": 8856,
      "똑같애": 8857,
      "싶었는데": 8858,
      "겅하난": 8859,
      "반에": 8860,
      "봤던": 8861,
      "부럽": 8862,
      "애월": 8863,
      "명은": 8864,
      "오죽": 8865,
      "##아도": 8866,
      "##십시오": 8867,
      "소고기": 8868,
      "말랜": 8869,
      "시대": 8870,
      "알게": 8871,
      "배우고": 8872,
      "##야돼": 8873,
      "주인공": 8874,
      "ᄌᆞ": 8875,
      "아팠": 8876,
      "없거든": 8877,
      "##나네": 8878,
      "손가락": 8879,
      "마시고": 8880,
      "##구가": 8881,
      "물어봤": 8882,
      "아방이": 8883,
      "노트북": 8884,
      "태어나": 8885,
      "##상을": 8886,
      "으음": 8887,
      "입을": 8888,
      "아빠도": 8889,
      "먹으면서": 8890,
      "휴학": 8891,
      "못살": 8892,
      "노란": 8893,
      "싸움": 8894,
      "##여가지고": 8895,
      "어어어": 8896,
      "중고": 8897,
      "사면": 8898,
      "##비도": 8899,
      "##번호": 8900,
      "조용히": 8901,
      "걸어서": 8902,
      "과자": 8903,
      "좋으": 8904,
      "주세요": 8905,
      "##먹을": 8906,
      "##에다": 8907,
      "##이엔": 8908,
      "##지마": 8909,
      "어디로": 8910,
      "영국": 8911,
      "요만큼": 8912,
      "##그래": 8913,
      "당연하지": 8914,
      "때에": 8915,
      "나는이": 8916,
      "여행을": 8917,
      "밀가루": 8918,
      "이모가": 8919,
      "들이": 8920,
      "##수는": 8921,
      "다양": 8922,
      "내는": 8923,
      "##쟁이": 8924,
      "인데": 8925,
      "아이스크림": 8926,
      "##그러": 8927,
      "이름에서": 8928,
      "쓰러": 8929,
      "요즘엔": 8930,
      "과학": 8931,
      "거기다가": 8932,
      "안전": 8933,
      "테이": 8934,
      "##리카": 8935,
      "알앙": 8936,
      "월에": 8937,
      "안될": 8938,
      "##있지": 8939,
      "에프": 8940,
      "휴가": 8941,
      "갈까": 8942,
      "갈려고": 8943,
      "수준": 8944,
      "##다섯": 8945,
      "##번째": 8946,
      "오토": 8947,
      "옛날부터": 8948,
      "살다가": 8949,
      "괜찮지": 8950,
      "보민": 8951,
      "함덕": 8952,
      "먹었던": 8953,
      "겅해부난": 8954,
      "한댄": 8955,
      "예민": 8956,
      "##할머니": 8957,
      "나중에는": 8958,
      "시리": 8959,
      "있겠지": 8960,
      "상담": 8961,
      "##입니까": 8962,
      "##꺼야": 8963,
      "거기다": 8964,
      "있었잖아": 8965,
      "##근엥": 8966,
      "##거운": 8967,
      "이름야": 8968,
      "##대요": 8969,
      "그랬지": 8970,
      "박스": 8971,
      "##찌개": 8972,
      "이상해": 8973,
      "##여고": 8974,
      "맞을": 8975,
      "올렸": 8976,
      "형이": 8977,
      "##치도": 8978,
      "보말": 8979,
      "지방": 8980,
      "키우고": 8981,
      "분위기": 8982,
      "허당": 8983,
      "천천": 8984,
      "독서": 8985,
      "있습니까": 8986,
      "정상": 8987,
      "누구랑": 8988,
      "엿날": 8989,
      "여기까지": 8990,
      "옥돔": 8991,
      "해결": 8992,
      "##엄마": 8993,
      "익숙": 8994,
      "타이": 8995,
      "##내는": 8996,
      "닮다": 8997,
      "최대": 8998,
      "##아노": 8999,
      "쉽지": 9000,
      "삼일": 9001,
      "너의": 9002,
      "줬어": 9003,
      "##허멍": 9004,
      "이런데": 9005,
      "갈거": 9006,
      "된거": 9007,
      "많다": 9008,
      "들었는데": 9009,
      "어게": 9010,
      "편해": 9011,
      "모르는데": 9012,
      "있겠다": 9013,
      "계단": 9014,
      "천천히": 9015,
      "끝날": 9016,
      "분명히": 9017,
      "써서": 9018,
      "세대": 9019,
      "야채": 9020,
      "상처": 9021,
      "빡세": 9022,
      "세금": 9023,
      "언젠": 9024,
      "오면은": 9025,
      "맛있지": 9026,
      "빠르": 9027,
      "##으로만": 9028,
      "날라": 9029,
      "아는데": 9030,
      "하맨": 9031,
      "자전거": 9032,
      "##치면": 9033,
      "그런건": 9034,
      "어르신": 9035,
      "##스는": 9036,
      "가까운": 9037,
      "길어": 9038,
      "동기": 9039,
      "골목": 9040,
      "십년": 9041,
      "아프고": 9042,
      "맞았": 9043,
      "##하우스": 9044,
      "걸어가": 9045,
      "##겠대": 9046,
      "샀는데": 9047,
      "설탕": 9048,
      "주위": 9049,
      "성질": 9050,
      "맛있겠다": 9051,
      "##오빠": 9052,
      "배운": 9053,
      "오픈": 9054,
      "초코": 9055,
      "##놓은": 9056,
      "나타": 9057,
      "한창": 9058,
      "##저기": 9059,
      "무료": 9060,
      "카메라": 9061,
      "##해주": 9062,
      "정보": 9063,
      "찍은": 9064,
      "##디다게": 9065,
      "많을": 9066,
      "뭐하는": 9067,
      "발표": 9068,
      "시장": 9069,
      "이랑": 9070,
      "##바닥": 9071,
      "동문": 9072,
      "어이가": 9073,
      "영행": 9074,
      "같던데": 9075,
      "##다녀": 9076,
      "##수광": 9077,
      "##주의": 9078,
      "싶으면": 9079,
      "스포": 9080,
      "은행": 9081,
      "이상하게": 9082,
      "배웠": 9083,
      "##였던": 9084,
      "재수": 9085,
      "애들한테": 9086,
      "사는데": 9087,
      "##당이": 9088,
      "##자로": 9089,
      "##센트": 9090,
      "막걸": 9091,
      "어딨": 9092,
      "놔둬": 9093,
      "능력": 9094,
      "마흔": 9095,
      "음료": 9096,
      "피아노": 9097,
      "##음이": 9098,
      "재밌는": 9099,
      "원씩": 9100,
      "재료": 9101,
      "난다": 9102,
      "살면": 9103,
      "성공": 9104,
      "사이즈": 9105,
      "몰래": 9106,
      "##별로": 9107,
      "길게": 9108,
      "뒤에서": 9109,
      "오른": 9110,
      "바보": 9111,
      "졸라": 9112,
      "명이서": 9113,
      "달아": 9114,
      "##바이": 9115,
      "##선생": 9116,
      "##었으면": 9117,
      "##보세요": 9118,
      "##ᆞᆺ": 9119,
      "이쁜": 9120,
      "입맛": 9121,
      "##씨가": 9122,
      "나머지": 9123,
      "얘기도": 9124,
      "옷도": 9125,
      "초등": 9126,
      "##으넹": 9127,
      "동갑": 9128,
      "말앙": 9129,
      "좋댄": 9130,
      "하는거지": 9131,
      "걷는": 9132,
      "먹잖아": 9133,
      "뭐든": 9134,
      "부러": 9135,
      "금요일": 9136,
      "마구": 9137,
      "오빠도": 9138,
      "꾸준": 9139,
      "내리": 9140,
      "안하면": 9141,
      "역할": 9142,
      "요기": 9143,
      "했언": 9144,
      "만드": 9145,
      "##이에요": 9146,
      "아니네": 9147,
      "놔두면": 9148,
      "##이버": 9149,
      "얘기할": 9150,
      "혼자만": 9151,
      "짜리": 9152,
      "하이": 9153,
      "놀래": 9154,
      "비교": 9155,
      "인기": 9156,
      "임신": 9157,
      "특이": 9158,
      "##미가": 9159,
      "##져게": 9160,
      "어디냐": 9161,
      "##쩌고": 9162,
      "살지": 9163,
      "##겨서": 9164,
      "남는": 9165,
      "되서": 9166,
      "버린": 9167,
      "올해는": 9168,
      "##종일": 9169,
      "##서관": 9170,
      "아니까": 9171,
      "실제로": 9172,
      "생각해보니까": 9173,
      "그러다": 9174,
      "두번째": 9175,
      "와신디": 9176,
      "##제를": 9177,
      "미래": 9178,
      "살다": 9179,
      "자가": 9180,
      "허젠": 9181,
      "집어": 9182,
      "감기": 9183,
      "등록": 9184,
      "찍는": 9185,
      "##해라": 9186,
      "##가게": 9187,
      "도착": 9188,
      "성산": 9189,
      "허면": 9190,
      "##야겠다": 9191,
      "##보지": 9192,
      "생각해서": 9193,
      "종이": 9194,
      "들여": 9195,
      "이리": 9196,
      "사삼": 9197,
      "던져": 9198,
      "연구": 9199,
      "그러네": 9200,
      "데려다": 9201,
      "억울": 9202,
      "이년": 9203,
      "십이월": 9204,
      "갔던": 9205,
      "##게게": 9206,
      "감독": 9207,
      "못하게": 9208,
      "비닐": 9209,
      "오줌": 9210,
      "없대": 9211,
      "##트를": 9212,
      "쉬고": 9213,
      "넷플릭스": 9214,
      "손이": 9215,
      "이뻐": 9216,
      "십팔": 9217,
      "옆으로": 9218,
      "아니요": 9219,
      "강아": 9220,
      "강원도": 9221,
      "##보라": 9222,
      "일등": 9223,
      "침대": 9224,
      "음식을": 9225,
      "살았어": 9226,
      "##허영": 9227,
      "육지에서": 9228,
      "끌고": 9229,
      "##산이": 9230,
      "요망": 9231,
      "##부렀": 9232,
      "##받고": 9233,
      "가라고": 9234,
      "남자는": 9235,
      "사실은": 9236,
      "맞춰서": 9237,
      "군인": 9238,
      "보이고": 9239,
      "비대면": 9240,
      "않게": 9241,
      "##다면": 9242,
      "##가난": 9243,
      "##보자": 9244,
      "##시리": 9245,
      "국수": 9246,
      "물도": 9247,
      "성당": 9248,
      "왔을": 9249,
      "##려가지고": 9250,
      "갔당": 9251,
      "실습": 9252,
      "전화를": 9253,
      "어쩔수": 9254,
      "국가": 9255,
      "맛있는데": 9256,
      "##어진": 9257,
      "##시장": 9258,
      "하는거라": 9259,
      "돌아가셨": 9260,
      "주말에": 9261,
      "ᄃᆞᆯ": 9262,
      "했더니": 9263,
      "시작하": 9264,
      "ᄇᆞᆯ": 9265,
      "보니": 9266,
      "해본": 9267,
      "##이었는데": 9268,
      "##물을": 9269,
      "##히는": 9270,
      "부르는": 9271,
      "가젠": 9272,
      "날에": 9273,
      "않은데": 9274,
      "자는": 9275,
      "치는": 9276,
      "##국에": 9277,
      "기자": 9278,
      "놀란": 9279,
      "영영": 9280,
      "도새기": 9281,
      "안타": 9282,
      "했구나": 9283,
      "##구니": 9284,
      "빠지": 9285,
      "진심": 9286,
      "도시락": 9287,
      "빠졌": 9288,
      "좋안": 9289,
      "나오잖아": 9290,
      "##들의": 9291,
      "##원을": 9292,
      "##들고": 9293,
      "다른데": 9294,
      "하세요": 9295,
      "돼지고기": 9296,
      "비가": 9297,
      "뿌리": 9298,
      "미안해": 9299,
      "대박이다": 9300,
      "지키": 9301,
      "착한": 9302,
      "올라와": 9303,
      "거주": 9304,
      "대표": 9305,
      "어시난": 9306,
      "원인가": 9307,
      "아직은": 9308,
      "##대기": 9309,
      "있는지": 9310,
      "말아야": 9311,
      "캐릭": 9312,
      "학교를": 9313,
      "취직": 9314,
      "내내": 9315,
      "##치를": 9316,
      "마씸": 9317,
      "성적": 9318,
      "##허민": 9319,
      "안쓰": 9320,
      "##지요": 9321,
      "사진을": 9322,
      "생겼어": 9323,
      "##시니": 9324,
      "한다는": 9325,
      "귀찮아": 9326,
      "가봐": 9327,
      "거주게": 9328,
      "신제주": 9329,
      "디자": 9330,
      "손에": 9331,
      "먹으라고": 9332,
      "살려고": 9333,
      "이용": 9334,
      "제주도도": 9335,
      "맘에": 9336,
      "산책": 9337,
      "##이렇게": 9338,
      "##있네": 9339,
      "##왔는데": 9340,
      "댓글": 9341,
      "와도": 9342,
      "받아야": 9343,
      "작업": 9344,
      "과목": 9345,
      "하젠": 9346,
      "게매": 9347,
      "##교육": 9348,
      "할게": 9349,
      "##비를": 9350,
      "날짜": 9351,
      "##시가": 9352,
      "맞습니다": 9353,
      "밥은": 9354,
      "신부": 9355,
      "해갖고": 9356,
      "화나": 9357,
      "보건": 9358,
      "아저씨가": 9359,
      "##하더라고": 9360,
      "키가": 9361,
      "##했고": 9362,
      "좋아하지": 9363,
      "힘들지": 9364,
      "하루종일": 9365,
      "어린이집": 9366,
      "넘게": 9367,
      "차에": 9368,
      "나빠": 9369,
      "만에": 9370,
      "##할꺼": 9371,
      "##보니": 9372,
      "모양이야": 9373,
      "예전에는": 9374,
      "끝내": 9375,
      "않지": 9376,
      "건조": 9377,
      "싸고": 9378,
      "##으니": 9379,
      "힘들고": 9380,
      "고등학생": 9381,
      "우리랑": 9382,
      "부탁": 9383,
      "##시다": 9384,
      "##이연": 9385,
      "##린다": 9386,
      "있는게": 9387,
      "보다는": 9388,
      "주니까": 9389,
      "대기": 9390,
      "대체": 9391,
      "마루": 9392,
      "유지": 9393,
      "패딩": 9394,
      "경우에는": 9395,
      "대단하다": 9396,
      "왔지": 9397,
      "허벅": 9398,
      "그정도": 9399,
      "먹는거": 9400,
      "이성": 9401,
      "##서게": 9402,
      "좋아하거든": 9403,
      "하하하": 9404,
      "힘드": 9405,
      "못해서": 9406,
      "베이": 9407,
      "보자": 9408,
      "싸워": 9409,
      "##나가": 9410,
      "아버지는": 9411,
      "한마디": 9412,
      "단체": 9413,
      "삶아서": 9414,
      "허연": 9415,
      "뜯어": 9416,
      "##것이": 9417,
      "##타민": 9418,
      "##덜은": 9419,
      "살암": 9420,
      "선수": 9421,
      "행사": 9422,
      "생각했는데": 9423,
      "먹어야지": 9424,
      "간호사": 9425,
      "##하기도": 9426,
      "쫓아": 9427,
      "##주로": 9428,
      "##까지도": 9429,
      "바닷가": 9430,
      "일월": 9431,
      "##크림": 9432,
      "그거야": 9433,
      "하고싶": 9434,
      "않아서": 9435,
      "스위": 9436,
      "오는데": 9437,
      "어떵해": 9438,
      "노인": 9439,
      "시골": 9440,
      "월요일": 9441,
      "##상에": 9442,
      "데령": 9443,
      "마주": 9444,
      "자기네가": 9445,
      "갈라": 9446,
      "##질을": 9447,
      "두고": 9448,
      "##주마는": 9449,
      "오일장": 9450,
      "얘기는": 9451,
      "가는거": 9452,
      "대면": 9453,
      "원하는": 9454,
      "웬만하면": 9455,
      "사람인데": 9456,
      "아이도": 9457,
      "외국인": 9458,
      "##라스": 9459,
      "고등어": 9460,
      "맛은": 9461,
      "이기": 9462,
      "올리는": 9463,
      "##었구나": 9464,
      "걸릴": 9465,
      "개발": 9466,
      "엉덩": 9467,
      "지갑": 9468,
      "공짜": 9469,
      "버리면": 9470,
      "있습니다": 9471,
      "가네": 9472,
      "기사": 9473,
      "프랑": 9474,
      "##하자": 9475,
      "##대를": 9476,
      "간식": 9477,
      "사러": 9478,
      "여자는": 9479,
      "놔뒀": 9480,
      "사당": 9481,
      "##카오": 9482,
      "##살이": 9483,
      "어릴때": 9484,
      "주민": 9485,
      "사람들을": 9486,
      "들어봐": 9487,
      "않냐": 9488,
      "생기고": 9489,
      "지는": 9490,
      "채워": 9491,
      "최소": 9492,
      "##되어": 9493,
      "하나님이": 9494,
      "하지마": 9495,
      "음식이": 9496,
      "있던데": 9497,
      "잖아": 9498,
      "오키": 9499,
      "원이": 9500,
      "피티": 9501,
      "##어로": 9502,
      "##수꽈": 9503,
      "여기저기": 9504,
      "사오": 9505,
      "주사": 9506,
      "##들아": 9507,
      "삼년": 9508,
      "어리": 9509,
      "해볼": 9510,
      "##름이": 9511,
      "섭섭": 9512,
      "##랑이": 9513,
      "세상이": 9514,
      "돼가지고": 9515,
      "멀어": 9516,
      "전세": 9517,
      "치면": 9518,
      "허니까": 9519,
      "먹자": 9520,
      "놀이": 9521,
      "상품": 9522,
      "안내": 9523,
      "중에서": 9524,
      "건너": 9525,
      "일하고": 9526,
      "줄어": 9527,
      "##리면서": 9528,
      "##놈의": 9529,
      "가끔씩": 9530,
      "##구리": 9531,
      "##김치": 9532,
      "서비": 9533,
      "입에": 9534,
      "된다는": 9535,
      "보호": 9536,
      "옷이": 9537,
      "##하냐": 9538,
      "오빠한테": 9539,
      "교복": 9540,
      "그려": 9541,
      "가그넹": 9542,
      "가자고": 9543,
      "가까이": 9544,
      "놈이": 9545,
      "시부터": 9546,
      "알겠지": 9547,
      "적응": 9548,
      "##님은": 9549,
      "겨우": 9550,
      "그사람": 9551,
      "물려": 9552,
      "장소": 9553,
      "적당히": 9554,
      "사람만": 9555,
      "대단한": 9556,
      "골라": 9557,
      "면허": 9558,
      "최악": 9559,
      "얘기하면": 9560,
      "최근": 9561,
      "##셔서": 9562,
      "무서워서": 9563,
      "하셨": 9564,
      "해먹": 9565,
      "대출": 9566,
      "##서도": 9567,
      "몰랐는데": 9568,
      "캐릭터": 9569,
      "##스러운": 9570,
      "싫어하는": 9571,
      "밭이": 9572,
      "오징": 9573,
      "##제가": 9574,
      "대학생": 9575,
      "개웃겨": 9576,
      "튀김": 9577,
      "현금": 9578,
      "이라": 9579,
      "##에선": 9580,
      "##리기": 9581,
      "##망이": 9582,
      "오르": 9583,
      "##형이": 9584,
      "우리끼리": 9585,
      "그래갖고": 9586,
      "되겠어": 9587,
      "##해지": 9588,
      "먹어봤": 9589,
      "투자": 9590,
      "##주니까": 9591,
      "아이패": 9592,
      "콩나물": 9593,
      "키웠": 9594,
      "해야돼": 9595,
      "동아리": 9596,
      "연말": 9597,
      "##시민": 9598,
      "가이도": 9599,
      "모르겠지만": 9600,
      "일만": 9601,
      "좋더라": 9602,
      "##국이": 9603,
      "놀랐어": 9604,
      "맞나": 9605,
      "반응": 9606,
      "안됐": 9607,
      "이주": 9608,
      "헤서": 9609,
      "헤낫": 9610,
      "누구냐": 9611,
      "마라탕": 9612,
      "어딜": 9613,
      "##가도": 9614,
      "집에만": 9615,
      "괜찮을": 9616,
      "막이": 9617,
      "방어": 9618,
      "그랬던": 9619,
      "문제는": 9620,
      "만족": 9621,
      "부부": 9622,
      "헷갈": 9623,
      "먹다가": 9624,
      "걔한테": 9625,
      "대구": 9626,
      "##하여": 9627,
      "남자들은": 9628,
      "나가지고": 9629,
      "사위": 9630,
      "십분": 9631,
      "없나": 9632,
      "이번에는": 9633,
      "두부": 9634,
      "했주게": 9635,
      "그러니": 9636,
      "아닌거": 9637,
      "됐다": 9638,
      "올린": 9639,
      "하겠다고": 9640,
      "제목": 9641,
      "다가": 9642,
      "숟가락": 9643,
      "##해부난": 9644,
      "##바지": 9645,
      "ᄉᆞᆱ": 9646,
      "빠진": 9647,
      "제라": 9648,
      "해사": 9649,
      "##하거나": 9650,
      "딸은": 9651,
      "하던": 9652,
      "이래서": 9653,
      "인도": 9654,
      "##되지": 9655,
      "##우나": 9656,
      "부끄": 9657,
      "살아서": 9658,
      "내야": 9659,
      "브랜드": 9660,
      "학점": 9661,
      "##줘서": 9662,
      "지하철": 9663,
      "개씩": 9664,
      "되긴": 9665,
      "야이는": 9666,
      "사람의": 9667,
      "나나": 9668,
      "롯데": 9669,
      "아쉽": 9670,
      "저쪽": 9671,
      "천원": 9672,
      "##속에": 9673,
      "스타일이": 9674,
      "고장": 9675,
      "놀라": 9676,
      "바라": 9677,
      "댕겨": 9678,
      "맞는데": 9679,
      "콜라": 9680,
      "##아빠": 9681,
      "이거지": 9682,
      "나물": 9683,
      "##일날": 9684,
      "영화관": 9685,
      "확진자": 9686,
      "밀어": 9687,
      "발전": 9688,
      "배송": 9689,
      "비타민": 9690,
      "초가": 9691,
      "##네도": 9692,
      "##대도": 9693,
      "내려와": 9694,
      "갔잖아": 9695,
      "기가": 9696,
      "괜찮다": 9697,
      "국내": 9698,
      "설마": 9699,
      "십만원": 9700,
      "뭐를": 9701,
      "시루": 9702,
      "예배": 9703,
      "처음으로": 9704,
      "초밥": 9705,
      "##해주고": 9706,
      "ᄆᆞᆫ": 9707,
      "들리": 9708,
      "봉사": 9709,
      "온라인": 9710,
      "잠을": 9711,
      "체크": 9712,
      "먹을거": 9713,
      "궁금해": 9714,
      "도둑": 9715,
      "바꿨": 9716,
      "##는다고": 9717,
      "모슬": 9718,
      "소라": 9719,
      "해놨": 9720,
      "##차가": 9721,
      "많네": 9722,
      "기간": 9723,
      "느낀": 9724,
      "아르": 9725,
      "맛도": 9726,
      "##갔는데": 9727,
      "해야되나": 9728,
      "방금": 9729,
      "범벅": 9730,
      "키울": 9731,
      "##러서": 9732,
      "종류가": 9733,
      "안먹어": 9734,
      "추운": 9735,
      "##타고": 9736,
      "아니여": 9737,
      "짜장": 9738,
      "아라동": 9739,
      "이월": 9740,
      "##가니까": 9741,
      "들어오는": 9742,
      "뭐뭐": 9743,
      "가마": 9744,
      "넣으면": 9745,
      "그런지": 9746,
      "##이었나": 9747,
      "했는지": 9748,
      "##실에서": 9749,
      "그렇죠": 9750,
      "##부로": 9751,
      "막아": 9752,
      "창고": 9753,
      "##버릴": 9754,
      "자연스럽게": 9755,
      "말투": 9756,
      "식게": 9757,
      "프리": 9758,
      "##여야": 9759,
      "하는구나": 9760,
      "알아야": 9761,
      "아까워": 9762,
      "공연": 9763,
      "뭐였": 9764,
      "왔다고": 9765,
      "알아지": 9766,
      "하라": 9767,
      "##감을": 9768,
      "이시믄": 9769,
      "목소": 9770,
      "번만": 9771,
      "일상": 9772,
      "보인": 9773,
      "유리": 9774,
      "헙니까": 9775,
      "##밭에": 9776,
      "아부지": 9777,
      "개념": 9778,
      "##국은": 9779,
      "머리를": 9780,
      "잠시": 9781,
      "안했어": 9782,
      "않으니까": 9783,
      "##년도": 9784,
      "결과": 9785,
      "##방은": 9786,
      "것들은": 9787,
      "틀리": 9788,
      "##모가": 9789,
      "고급": 9790,
      "줄게": 9791,
      "요렇게": 9792,
      "낮에": 9793,
      "거기를": 9794,
      "시키고": 9795,
      "대정": 9796,
      "세탁": 9797,
      "##이션": 9798,
      "##덜이": 9799,
      "났어": 9800,
      "흔들": 9801,
      "##마심": 9802,
      "아이디": 9803,
      "만한": 9804,
      "보낼": 9805,
      "교통": 9806,
      "틀린": 9807,
      "홍콩": 9808,
      "인천": 9809,
      "일학년": 9810,
      "##동산": 9811,
      "생각엔": 9812,
      "손님이": 9813,
      "다행히": 9814,
      "갈아서": 9815,
      "벌레": 9816,
      "요런": 9817,
      "##성을": 9818,
      "가봤어": 9819,
      "온다고": 9820,
      "당시에는": 9821,
      "비밀": 9822,
      "##았던": 9823,
      "친구한테": 9824,
      "누구한테": 9825,
      "재밌게": 9826,
      "어제도": 9827,
      "재미있어": 9828,
      "미술": 9829,
      "모양이라": 9830,
      "사름은": 9831,
      "아니지만": 9832,
      "뭔말": 9833,
      "블랙": 9834,
      "##었다가": 9835,
      "다행이다": 9836,
      "감귤": 9837,
      "대만": 9838,
      "아시": 9839,
      "삼십분": 9840,
      "것들을": 9841,
      "도서관": 9842,
      "##어지": 9843,
      "##새끼": 9844,
      "얘기했": 9845,
      "어두": 9846,
      "할래": 9847,
      "이랬는데": 9848,
      "네이버": 9849,
      "앉앙": 9850,
      "형부": 9851,
      "##집에서": 9852,
      "생각할": 9853,
      "##이든": 9854,
      "모슬포": 9855,
      "싸웠": 9856,
      "종교": 9857,
      "필라": 9858,
      "##합니까": 9859,
      "올라가는": 9860,
      "동백": 9861,
      "버는": 9862,
      "##졌는데": 9863,
      "계절": 9864,
      "##너무": 9865,
      "살기": 9866,
      "적도": 9867,
      "들어올": 9868,
      "그랬더니": 9869,
      "알바를": 9870,
      "갈비": 9871,
      "에휴": 9872,
      "##보게": 9873,
      "가위": 9874,
      "기냥": 9875,
      "야이네": 9876,
      "차도": 9877,
      "사백": 9878,
      "첫째": 9879,
      "##아찌": 9880,
      "좋아했": 9881,
      "말했지": 9882,
      "어른들": 9883,
      "어떨": 9884,
      "태워": 9885,
      "##하라": 9886,
      "##서가": 9887,
      "시어멍": 9888,
      "유치원": 9889,
      "그러는데": 9890,
      "스케": 9891,
      "준다고": 9892,
      "해그냉": 9893,
      "그거지": 9894,
      "어른들이": 9895,
      "사장님이": 9896,
      "ᄒᆞ여": 9897,
      "죽고": 9898,
      "해놓고": 9899,
      "창문": 9900,
      "##있잖아": 9901,
      "길을": 9902,
      "좋아해서": 9903,
      "뭐고": 9904,
      "미니": 9905,
      "없었는데": 9906,
      "없어도": 9907,
      "보리밥": 9908,
      "안하는": 9909,
      "원에": 9910,
      "코스": 9911,
      "##봐도": 9912,
      "상태에서": 9913,
      "가깝": 9914,
      "얘도": 9915,
      "이층": 9916,
      "어떡하지": 9917,
      "돈만": 9918,
      "##으믄": 9919,
      "화면": 9920,
      "##치지": 9921,
      "자존": 9922,
      "##고리": 9923,
      "##날은": 9924,
      "맛있다고": 9925,
      "국어": 9926,
      "단어": 9927,
      "수제": 9928,
      "우리집에": 9929,
      "백만원": 9930,
      "아가": 9931,
      "##났는데": 9932,
      "##제도": 9933,
      "화장품": 9934,
      "재산": 9935,
      "##었대": 9936,
      "##한대": 9937,
      "##색깔": 9938,
      "감정": 9939,
      "돼야": 9940,
      "치워": 9941,
      "곳이": 9942,
      "요만": 9943,
      "##계가": 9944,
      "따뜻한": 9945,
      "나하고": 9946,
      "않았는데": 9947,
      "게난이": 9948,
      "선생님은": 9949,
      "좋았던": 9950,
      "애플": 9951,
      "담아서": 9952,
      "##저히": 9953,
      "모르겠고": 9954,
      "싶을": 9955,
      "타임": 9956,
      "가본": 9957,
      "##인트": 9958,
      "되겠네": 9959,
      "샤워": 9960,
      "야무": 9961,
      "크림": 9962,
      "##사고": 9963,
      "말해도": 9964,
      "짧은": 9965,
      "헌디": 9966,
      "##비는": 9967,
      "이름으로": 9968,
      "봐야지": 9969,
      "설거지": 9970,
      "자라": 9971,
      "하민": 9972,
      "##스러워": 9973,
      "해야될": 9974,
      "꾸준히": 9975,
      "가리": 9976,
      "##느니": 9977,
      "이름쌤": 9978,
      "속으로": 9979,
      "거라서": 9980,
      "개인적으로": 9981,
      "알잖아": 9982,
      "표정": 9983,
      "##빨리": 9984,
      "하나를": 9985,
      "그렇다": 9986,
      "두시간": 9987,
      "##스러": 9988,
      "과수": 9989,
      "또래": 9990,
      "마무": 9991,
      "부난": 9992,
      "아무나": 9993,
      "허면은": 9994,
      "연락이": 9995,
      "좋네": 9996,
      "쓰리": 9997,
      "학교가": 9998,
      "전자": 9999,
      "하시는": 10000,
      "거에요": 10001,
      "맛없": 10002,
      "##보험": 10003,
      "남자들": 10004,
      "가려": 10005,
      "아들도": 10006,
      "유산": 10007,
      "재미없": 10008,
      "바꿀": 10009,
      "자리가": 10010,
      "청년": 10011,
      "에어팟": 10012,
      "ᄃᆞ": 10013,
      "받안": 10014,
      "##혀서": 10015,
      "공부도": 10016,
      "넣는": 10017,
      "지고": 10018,
      "##니다게": 10019,
      "남자들이": 10020,
      "아이패드": 10021,
      "맞으면": 10022,
      "거기까지": 10023,
      "어휴": 10024,
      "##게임": 10025,
      "운동도": 10026,
      "그전": 10027,
      "아홉시": 10028,
      "담당": 10029,
      "##우리": 10030,
      "##동네": 10031,
      "없댄": 10032,
      "하다보면": 10033,
      "과정": 10034,
      "두꺼": 10035,
      "킬로": 10036,
      "호주": 10037,
      "신기한": 10038,
      "가진": 10039,
      "고쳐": 10040,
      "##수로": 10041,
      "들어야": 10042,
      "어디에": 10043,
      "안좋아": 10044,
      "기억에": 10045,
      "공동": 10046,
      "담임": 10047,
      "말에": 10048,
      "약간이": 10049,
      "하길래": 10050,
      "##졌다": 10051,
      "충분히": 10052,
      "벌고": 10053,
      "##지않": 10054,
      "##롭게": 10055,
      "그것을": 10056,
      "눈썹": 10057,
      "기능": 10058,
      "높아": 10059,
      "파티": 10060,
      "성인": 10061,
      "젓갈": 10062,
      "##허믄": 10063,
      "떨어진": 10064,
      "제이": 10065,
      "##물에": 10066,
      "있어신디": 10067,
      "남동생": 10068,
      "자이": 10069,
      "스페": 10070,
      "##국도": 10071,
      "입구": 10072,
      "입니다": 10073,
      "##통령": 10074,
      "결혼할": 10075,
      "날씨가": 10076,
      "블루": 10077,
      "사천": 10078,
      "대학원": 10079,
      "놔두고": 10080,
      "시월": 10081,
      "촬영": 10082,
      "##용이": 10083,
      "때니까": 10084,
      "##이요": 10085,
      "##분에": 10086,
      "전화해": 10087,
      "사투리를": 10088,
      "테이블": 10089,
      "부드": 10090,
      "심어": 10091,
      "진행": 10092,
      "해지": 10093,
      "조심해야": 10094,
      "ᄎᆞᆷ": 10095,
      "##거고": 10096,
      "그쪽으로": 10097,
      "밑으로": 10098,
      "##있으면": 10099,
      "배울": 10100,
      "차는": 10101,
      "해안": 10102,
      "효과": 10103,
      "정신이": 10104,
      "해봐야": 10105,
      "복잡": 10106,
      "장가": 10107,
      "##꺼번에": 10108,
      "다르지": 10109,
      "되난": 10110,
      "퇴직": 10111,
      "포함": 10112,
      "하냐고": 10113,
      "아닌디": 10114,
      "먹을까": 10115,
      "년을": 10116,
      "싶긴": 10117,
      "##한티": 10118,
      "##한테는": 10119,
      "사돈": 10120,
      "중국어": 10121,
      "야간": 10122,
      "##려야": 10123,
      "##였으면": 10124,
      "누나가": 10125,
      "강으네": 10126,
      "생각하": 10127,
      "겅해신디": 10128,
      "되가지고": 10129,
      "많았어": 10130,
      "씻고": 10131,
      "양말": 10132,
      "아닐까": 10133,
      "매달": 10134,
      "바르": 10135,
      "피시": 10136,
      "나누": 10137,
      "달달": 10138,
      "요샌": 10139,
      "초록": 10140,
      "##더만": 10141,
      "나와가지고": 10142,
      "비슷해": 10143,
      "##카부댄": 10144,
      "뚜껑": 10145,
      "충전": 10146,
      "이름이네": 10147,
      "올라간": 10148,
      "단톡": 10149,
      "##렸는데": 10150,
      "##선이": 10151,
      "색깔이": 10152,
      "전라도": 10153,
      "##는가": 10154,
      "우에": 10155,
      "터져": 10156,
      "할거야": 10157,
      "##게만은": 10158,
      "##하대": 10159,
      "올라갈": 10160,
      "초등학생": 10161,
      "회장": 10162,
      "이름씨": 10163,
      "입장에서는": 10164,
      "버리는": 10165,
      "입원": 10166,
      "한명": 10167,
      "##가면서": 10168,
      "결국은": 10169,
      "고마워": 10170,
      "모래": 10171,
      "보름": 10172,
      "속이": 10173,
      "둘이서": 10174,
      "서서": 10175,
      "한동안": 10176,
      "##리러": 10177,
      "생각나는": 10178,
      "저게": 10179,
      "##예예": 10180,
      "##동이": 10181,
      "몰르": 10182,
      "사우나": 10183,
      "##다보면": 10184,
      "##실이": 10185,
      "##히고": 10186,
      "글쎄": 10187,
      "입은": 10188,
      "##부난이": 10189,
      "기다리": 10190,
      "얘랑": 10191,
      "죽여": 10192,
      "삶아": 10193,
      "있으면은": 10194,
      "막걸리": 10195,
      "동쪽": 10196,
      "못먹": 10197,
      "플러스": 10198,
      "하든": 10199,
      "다른거": 10200,
      "가나": 10201,
      "네가": 10202,
      "어지": 10203,
      "맛있고": 10204,
      "있었네": 10205,
      "보멍": 10206,
      "울고": 10207,
      "찍어서": 10208,
      "찾아서": 10209,
      "어머니도": 10210,
      "한국인": 10211,
      "안핸": 10212,
      "##할려고": 10213,
      "자동차": 10214,
      "땐가": 10215,
      "운영": 10216,
      "원짜리": 10217,
      "저것도": 10218,
      "##로그": 10219,
      "##었으니까": 10220,
      "##카드": 10221,
      "##기면": 10222,
      "##대회": 10223,
      "이것이": 10224,
      "드러": 10225,
      "신혼": 10226,
      "있냐고": 10227,
      "##나이": 10228,
      "##개월": 10229,
      "마인": 10230,
      "좋은디": 10231,
      "나신디": 10232,
      "##랭이": 10233,
      "동네에서": 10234,
      "배우는": 10235,
      "가그네": 10236,
      "급식": 10237,
      "##한댄": 10238,
      "##우다게": 10239,
      "오징어": 10240,
      "경주": 10241,
      "##여섯": 10242,
      "##금을": 10243,
      "##준다고": 10244,
      "들어와서": 10245,
      "미안한데": 10246,
      "추천해": 10247,
      "나을": 10248,
      "바뀐": 10249,
      "집으로": 10250,
      "##진짜": 10251,
      "알아듣": 10252,
      "먹엄": 10253,
      "시아버지": 10254,
      "인턴": 10255,
      "여자들이": 10256,
      "파란": 10257,
      "##도를": 10258,
      "내불": 10259,
      "들렁": 10260,
      "엑스": 10261,
      "엠비": 10262,
      "핑계": 10263,
      "해볼까": 10264,
      "##겠니": 10265,
      "딸기": 10266,
      "가스": 10267,
      "달래": 10268,
      "안들어": 10269,
      "이마트": 10270,
      "##보리": 10271,
      "검정": 10272,
      "대통령": 10273,
      "회의": 10274,
      "##사랑": 10275,
      "프랑스": 10276,
      "살에": 10277,
      "없애": 10278,
      "아이고야": 10279,
      "아무거나": 10280,
      "좋으니까": 10281,
      "후배": 10282,
      "그쪽에": 10283,
      "대해": 10284,
      "버렸어": 10285,
      "말했잖아": 10286,
      "되니깐": 10287,
      "그러니까요": 10288,
      "어머님": 10289,
      "북한": 10290,
      "독일": 10291,
      "독감": 10292,
      "와인": 10293,
      "있으니깐": 10294,
      "전부터": 10295,
      "##는다": 10296,
      "##바이트": 10297,
      "술도": 10298,
      "했습니까": 10299,
      "##한텐": 10300,
      "와이프": 10301,
      "서운": 10302,
      "다음에는": 10303,
      "초반에": 10304,
      "공간": 10305,
      "어플": 10306,
      "이십오": 10307,
      "될까": 10308,
      "##게이": 10309,
      "##받아": 10310,
      "해야겠다": 10311,
      "잘생겼": 10312,
      "술집": 10313,
      "##마을": 10314,
      "##닮아": 10315,
      "떨어지": 10316,
      "발로": 10317,
      "어디지": 10318,
      "알아요": 10319,
      "애를": 10320,
      "커서": 10321,
      "없어져": 10322,
      "필라테": 10323,
      "봐라": 10324,
      "주워": 10325,
      "##봅서": 10326,
      "그런걸": 10327,
      "경헌디": 10328,
      "꿈이": 10329,
      "한꺼번에": 10330,
      "돌고": 10331,
      "손을": 10332,
      "올라가서": 10333,
      "몬딱": 10334,
      "사지": 10335,
      "애니": 10336,
      "파마": 10337,
      "##양이": 10338,
      "전화가": 10339,
      "누군지": 10340,
      "근처에": 10341,
      "먹긴": 10342,
      "체험": 10343,
      "##았다고": 10344,
      "바당에": 10345,
      "참기름": 10346,
      "##부모": 10347,
      "ᄒᆞ나": 10348,
      "들어오면": 10349,
      "됐을": 10350,
      "상상": 10351,
      "애는": 10352,
      "오래됐": 10353,
      "맞게": 10354,
      "멍청": 10355,
      "출발": 10356,
      "할아버": 10357,
      "마음대로": 10358,
      "보여주": 10359,
      "해주면": 10360,
      "결정": 10361,
      "머릿": 10362,
      "못하니까": 10363,
      "미쳐": 10364,
      "일일": 10365,
      "커플": 10366,
      "물어보고": 10367,
      "자리젓": 10368,
      "가죽": 10369,
      "걸리면": 10370,
      "영화를": 10371,
      "연락을": 10372,
      "으로": 10373,
      "중학생": 10374,
      "얘기하니까": 10375,
      "겁니까": 10376,
      "편한": 10377,
      "##이니": 10378,
      "##였고": 10379,
      "위에서": 10380,
      "쪽은": 10381,
      "##기네": 10382,
      "혼자서": 10383,
      "보일러": 10384,
      "온다": 10385,
      "웃음": 10386,
      "##나지": 10387,
      "가지구": 10388,
      "한가": 10389,
      "모르켜": 10390,
      "누구지": 10391,
      "##겠더라": 10392,
      "거여": 10393,
      "햄버거": 10394,
      "할머니들": 10395,
      "재미가": 10396,
      "안녕하세요": 10397,
      "빨라": 10398,
      "말해줘": 10399,
      "십칠": 10400,
      "얘길": 10401,
      "##랗게": 10402,
      "신랑이": 10403,
      "도저히": 10404,
      "말하는거": 10405,
      "짧게": 10406,
      "경기": 10407,
      "대회": 10408,
      "불고": 10409,
      "스님": 10410,
      "##시피": 10411,
      "생각했": 10412,
      "얼굴도": 10413,
      "그분이": 10414,
      "않안": 10415,
      "##고사": 10416,
      "얘네가": 10417,
      "됩니다": 10418,
      "행정": 10419,
      "산다": 10420,
      "이케": 10421,
      "친구네": 10422,
      "너넨": 10423,
      "농협": 10424,
      "이름를": 10425,
      "힘들게": 10426,
      "동남": 10427,
      "쓰니까": 10428,
      "어실": 10429,
      "##금이": 10430,
      "먹젠": 10431,
      "초딩": 10432,
      "##생각": 10433,
      "##봐봐": 10434,
      "몸을": 10435,
      "써도": 10436,
      "##팔십": 10437,
      "공부하는": 10438,
      "다녀야": 10439,
      "했었잖아": 10440,
      "궁금한": 10441,
      "줘서": 10442,
      "##버리는": 10443,
      "머리에": 10444,
      "울어": 10445,
      "##으론": 10446,
      "거시기": 10447,
      "보관": 10448,
      "길에": 10449,
      "깔아": 10450,
      "내버려": 10451,
      "넘어서": 10452,
      "사가지고": 10453,
      "내용이": 10454,
      "얼굴에": 10455,
      "경우도": 10456,
      "예쁘다": 10457,
      "개는": 10458,
      "##봤자": 10459,
      "것에": 10460,
      "학교도": 10461,
      "십일월": 10462,
      "ᄂᆞ": 10463,
      "땅이": 10464,
      "생견": 10465,
      "안정": 10466,
      "옮겨": 10467,
      "육지에": 10468,
      "경하난": 10469,
      "목사님": 10470,
      "아나": 10471,
      "주에": 10472,
      "상당히": 10473,
      "세트": 10474,
      "오만원": 10475,
      "##세가": 10476,
      "가지고서": 10477,
      "노래를": 10478,
      "공감": 10479,
      "쪽이": 10480,
      "지금이": 10481,
      "살아도": 10482,
      "년이": 10483,
      "한달": 10484,
      "해났": 10485,
      "마당에": 10486,
      "가득": 10487,
      "모여서": 10488,
      "소리를": 10489,
      "당연한": 10490,
      "걸리는": 10491,
      "우도": 10492,
      "일에": 10493,
      "축제": 10494,
      "다니면": 10495,
      "과외": 10496,
      "텐데": 10497,
      "##는이": 10498,
      "##다다": 10499,
      "##줄까": 10500,
      "똑같아": 10501,
      "바쁜": 10502,
      "수확": 10503,
      "하거나": 10504,
      "좋아하니까": 10505,
      "나두": 10506,
      "##어머니": 10507,
      "이천이십": 10508,
      "봐가지고": 10509,
      "##느라": 10510,
      "구석": 10511,
      "부러워": 10512,
      "카레": 10513,
      "##랄까": 10514,
      "빨리빨리": 10515,
      "가봔": 10516,
      "##하신": 10517,
      "##증이": 10518,
      "전쟁": 10519,
      "##난이": 10520,
      "관련된": 10521,
      "ᄄᆞ": 10522,
      "밭벼": 10523,
      "사장": 10524,
      "볶음": 10525,
      "읽고": 10526,
      "엄청나게": 10527,
      "안된다고": 10528,
      "공사": 10529,
      "쓰는데": 10530,
      "오메기": 10531,
      "종일": 10532,
      "후라이": 10533,
      "팔천": 10534,
      "##하겠다": 10535,
      "##꺼라": 10536,
      "거기로": 10537,
      "생각에는": 10538,
      "선생님도": 10539,
      "고소": 10540,
      "예게": 10541,
      "##육십": 10542,
      "##통이": 10543,
      "그렇잖아": 10544,
      "건드": 10545,
      "약을": 10546,
      "공부하고": 10547,
      "놔야": 10548,
      "얼만": 10549,
      "##드레": 10550,
      "못생": 10551,
      "원을": 10552,
      "홍보": 10553,
      "##피스": 10554,
      "들어보": 10555,
      "스토리": 10556,
      "다를": 10557,
      "명씩": 10558,
      "좋대": 10559,
      "아이돌": 10560,
      "디자인": 10561,
      "거랜": 10562,
      "사발": 10563,
      "파리": 10564,
      "혹시나": 10565,
      "삼양": 10566,
      "##로워": 10567,
      "##줍서": 10568,
      "##방도": 10569,
      "팔월": 10570,
      "사대": 10571,
      "습관": 10572,
      "카카오": 10573,
      "헤여": 10574,
      "호미": 10575,
      "##돼지": 10576,
      "##으라": 10577,
      "##마한": 10578,
      "눈을": 10579,
      "줬는데": 10580,
      "##들에": 10581,
      "##원에서": 10582,
      "분들이": 10583,
      "유학": 10584,
      "칼로": 10585,
      "나온다": 10586,
      "아방은": 10587,
      "곱게": 10588,
      "트럭": 10589,
      "##오백": 10590,
      "이따가": 10591,
      "가수": 10592,
      "갈래": 10593,
      "체력": 10594,
      "해다가": 10595,
      "##키로": 10596,
      "##시대": 10597,
      "##돌아": 10598,
      "않습니까": 10599,
      "웃어": 10600,
      "##니가": 10601,
      "아까도": 10602,
      "이해를": 10603,
      "어른들은": 10604,
      "함께": 10605,
      "##으고": 10606,
      "빠른": 10607,
      "섞어": 10608,
      "##했댄": 10609,
      "아니었어": 10610,
      "친구들은": 10611,
      "오래된": 10612,
      "보리쌀": 10613,
      "살림": 10614,
      "성게": 10615,
      "스피": 10616,
      "시댁": 10617,
      "양파": 10618,
      "##졌지": 10619,
      "맛있었어": 10620,
      "스포츠": 10621,
      "올랐": 10622,
      "이삼": 10623,
      "##인줄": 10624,
      "있었을": 10625,
      "반지": 10626,
      "안할": 10627,
      "##로운": 10628,
      "##기지": 10629,
      "이동": 10630,
      "##량이": 10631,
      "##에서만": 10632,
      "알았지": 10633,
      "금액": 10634,
      "수요일": 10635,
      "##주라": 10636,
      "그만두": 10637,
      "어쩌다": 10638,
      "아르바이트": 10639,
      "오분": 10640,
      "들었던": 10641,
      "비료": 10642,
      "영해": 10643,
      "##오지": 10644,
      "언제까지": 10645,
      "노랑": 10646,
      "생기는": 10647,
      "의자": 10648,
      "한쪽": 10649,
      "##하시": 10650,
      "문을": 10651,
      "힘들다": 10652,
      "해봤자": 10653,
      "그러나": 10654,
      "할머니는": 10655,
      "바람이": 10656,
      "웃기다": 10657,
      "시킨": 10658,
      "아오": 10659,
      "아플": 10660,
      "펜션": 10661,
      "곱창": 10662,
      "오전": 10663,
      "유월": 10664,
      "시작하겠습니다": 10665,
      "세개": 10666,
      "스키": 10667,
      "짬뽕": 10668,
      "태풍": 10669,
      "퍼센트": 10670,
      "이름만": 10671,
      "이런걸": 10672,
      "서울대": 10673,
      "다녔어": 10674,
      "최대한": 10675,
      "먹여": 10676,
      "싫다": 10677,
      "안해서": 10678,
      "아니구나": 10679,
      "마른": 10680,
      "박아": 10681,
      "유채": 10682,
      "물어볼": 10683,
      "나라에서": 10684,
      "욕을": 10685,
      "좋잖아": 10686,
      "##벌레": 10687,
      "여섯시": 10688,
      "동영": 10689,
      "방향": 10690,
      "저장": 10691,
      "좋아할": 10692,
      "기본적으로": 10693,
      "대상": 10694,
      "뭐인가": 10695,
      "오리": 10696,
      "일억": 10697,
      "괜찮다고": 10698,
      "경쟁": 10699,
      "받앙": 10700,
      "##가에": 10701,
      "기억도": 10702,
      "메이": 10703,
      "몇개": 10704,
      "별거": 10705,
      "##화를": 10706,
      "##겹살": 10707,
      "방법이": 10708,
      "들엉": 10709,
      "등급": 10710,
      "아니거든": 10711,
      "들어오고": 10712,
      "밥이": 10713,
      "야구": 10714,
      "지붕": 10715,
      "##라부난": 10716,
      "##란다": 10717,
      "만들었": 10718,
      "들러": 10719,
      "무명": 10720,
      "타면": 10721,
      "##로우": 10722,
      "얘기한": 10723,
      "꿈을": 10724,
      "난이": 10725,
      "없었던": 10726,
      "##주마씨": 10727,
      "애기를": 10728,
      "보려고": 10729,
      "정확히": 10730,
      "이랜": 10731,
      "먹어봤어": 10732,
      "좋은게": 10733,
      "남았어": 10734,
      "따고": 10735,
      "매니": 10736,
      "생길": 10737,
      "생각한": 10738,
      "말고는": 10739,
      "안되지": 10740,
      "대장": 10741,
      "좀이": 10742,
      "잡을": 10743,
      "##하지만": 10744,
      "사모님": 10745,
      "ᄎᆞᆯ": 10746,
      "뚱뚱": 10747,
      "말해야": 10748,
      "병원에서": 10749,
      "봤다": 10750,
      "스카": 10751,
      "그렇게까지": 10752,
      "생각하지": 10753,
      "아녀": 10754,
      "들어본": 10755,
      "자기한테": 10756,
      "친구들도": 10757,
      "걱정이": 10758,
      "한거야": 10759,
      "버릴": 10760,
      "수입": 10761,
      "이르": 10762,
      "칭찬": 10763,
      "평소에": 10764,
      "##것만": 10765,
      "놀랬": 10766,
      "않잖아": 10767,
      "파스타": 10768,
      "해봤어": 10769,
      "##셨어": 10770,
      "말했네": 10771,
      "수학여행": 10772,
      "의미가": 10773,
      "나야": 10774,
      "눈도": 10775,
      "사먹": 10776,
      "영향": 10777,
      "잘했어": 10778,
      "해리": 10779,
      "##리어": 10780,
      "##제는": 10781,
      "##럽게": 10782,
      "맛있더라": 10783,
      "하잖아요": 10784,
      "안된다": 10785,
      "##돼서": 10786,
      "##하댄": 10787,
      "ᄋᆞ": 10788,
      "줄을": 10789,
      "줘도": 10790,
      "##지예": 10791,
      "##말을": 10792,
      "이십사": 10793,
      "들어도": 10794,
      "싶어가지고": 10795,
      "볼까": 10796,
      "참고": 10797,
      "사람마다": 10798,
      "공부할": 10799,
      "할지": 10800,
      "##거워": 10801,
      "##되니까": 10802,
      "##파이": 10803,
      "중요해": 10804,
      "회사에서": 10805,
      "말했는데": 10806,
      "못하지": 10807,
      "끝에": 10808,
      "내꺼": 10809,
      "시간은": 10810,
      "갔다고": 10811,
      "뭐래": 10812,
      "ᄊᆞᆯ": 10813,
      "여성": 10814,
      "절간": 10815,
      "##했구나": 10816,
      "##사지": 10817,
      "결론": 10818,
      "경헤": 10819,
      "수박": 10820,
      "작가": 10821,
      "##민이": 10822,
      "##데이": 10823,
      "##연이": 10824,
      "여자들은": 10825,
      "할망이": 10826,
      "나은": 10827,
      "썼어": 10828,
      "이쪽으로": 10829,
      "허게": 10830,
      "분위기가": 10831,
[...]
